[PAD]
[UNK]
[CLS]
[SEP]
[MASK]
!
"
#
$
%
&
'
(
)
*
+
,
-
.
/
0
1
2
3
4
5
6
7
8
9
:
;
<
=
>
?
@
[
\
]
^
_
a
b
c
d
e
f
g
h
i
j
k
l
m
n
o
p
q
r
s
t
u
v
w
x
y
z
{
|
}
~
£
¤
¥
§
©
«
®
°
±
²
³
µ
·
¹
º
»
¼
×
ß
æ
÷
ø
đ
ŋ
ɔ
ə
ɡ
ʰ
ˇ
ˈ
ˊ
ˋ
ː
˙
˚
α
β
γ
δ
ε
η
θ
ι
κ
λ
μ
ν
ο
π
ρ
ς
σ
τ
υ
φ
χ
ψ
ω
а
б
в
г
д
е
ж
з
и
к
л
м
н
о
п
р
с
т
у
ф
х
ц
ч
ш
ы
ь
я
і
ا
ب
ة
ت
د
ر
س
ع
ل
م
ن
ه
و
ي
۩
ม
ย
ร
อ
་
ᄀ
ᄁ
ᄂ
ᄃ
ᄅ
ᄆ
ᄇ
ᄉ
ᄋ
ᄌ
ᄎ
ᄏ
ᄐ
ᄑ
ᄒ
ᆷ
ᆸ
‖
„
†
•
‥
‧
‰
′
″
‹
›
※
‿
⁄
⁺
ⁿ
₂
€
℃
№
™
ⅰ
ⅱ
ⅲ
ⅳ
ⅴ
←
↑
→
↓
↔
↗
↘
⇒
∀
−
∕
∙
√
∞
∠
∣
∥
∩
∶
∼
∽
≈
≒
≡
≤
≥
≦
≧
≪
≫
⊙
⋅
⋈
⋯
⌒
①
②
③
④
⑤
⑥
⑦
⑧
⑨
⑩
⑴
⑵
⑶
⑷
⑸
⒈
⒉
⒊
⒋
─
━
│
┃
┌
└
├
║
╞
╭
╱
╳
▃
█
▉
■
□
▪
▲
△
▶
►
▼
▽
◆
◇
○
◎
●
◕
◢
◤
★
☆
☞
☺
♀
♂
♠
♡
♣
♥
♦
♪
✔
✕
✖
❤
➤
、
。
〃
々
〇
〈
〉
《
》
「
」
『
』
【
】
〔
〕
〖
〗
〜
〝
〞
ぁ
あ
ぃ
い
う
ぇ
え
お
か
き
く
け
こ
さ
し
す
せ
そ
た
ち
っ
つ
て
と
な
に
ぬ
ね
の
は
ひ
ふ
へ
ほ
ま
み
む
め
も
ゃ
や
ゅ
ゆ
ょ
よ
ら
り
る
れ
ろ
わ
を
ん
゜
ゝ
ア
イ
ウ
ェ
エ
オ
カ
キ
ク
ケ
コ
サ
シ
ス
セ
ソ
タ
チ
ッ
ツ
テ
ト
ナ
ニ
ヌ
ネ
ノ
ハ
ヒ
フ
ヘ
ホ
マ
ミ
ム
メ
モ
ヤ
ユ
ヨ
ラ
リ
ル
レ
ロ
ワ
ヲ
ン
ヶ
・
ー
ヽ
ㄅ
ㄆ
ㄇ
ㄉ
ㄋ
ㄌ
ㄍ
ㄎ
ㄏ
ㄒ
ㄚ
ㄛ
ㄞ
ㄟ
ㄢ
ㄤ
ㄥ
ㄧ
ㄨ
ㆍ
㈦
㊣
㎡
㗎
一
丁
七
万
丈
三
上
下
不
与
丐
丑
专
且
丕
世
丘
丙
业
丛
东
丝
丞
両
丢
两
严
丧
丨
个
丫
中
丰
串
临
丶
丸
丹
为
主
丼
丽
举
丿
乂
乃
久
么
义
之
乌
乍
乎
乏
乐
乒
乓
乔
乖
乗
乘
乙
乜
九
乞
也
习
乡
书
乩
买
乱
乳
乾
亀
了
予
争
事
二
于
亏
云
互
五
井
亘
亚
些
亜
亟
亡
亢
交
亥
亦
产
亨
亩
享
京
亭
亮
亲
亳
亵
人
亿
什
仁
仃
仄
仅
仆
仇
今
介
仍
从
仏
仑
仓
仔
仕
他
仗
付
仙
仝
仞
仟
代
令
以
仨
仪
们
仮
仰
仲
件
价
任
份
仿
企
伉
伊
伍
伎
伏
伐
休
伕
众
优
伙
会
伝
伞
伟
传
伢
伤
伦
伪
伫
伯
估
伴
伶
伸
伺
似
伽
佃
但
位
低
住
佐
佑
体
何
佗
佘
余
佚
佛
作
佝
佞
佟
你
佢
佣
佤
佥
佩
佬
佯
佰
佳
佶
佻
佼
使
侃
侄
侈
例
侍
侏
侑
侗
供
依
侠
価
侣
侥
侦
侧
侨
侬
侮
侯
侵
便
促
俄
俊
俎
俏
俐
俑
俗
俘
俚
保
俞
俟
信
俨
俩
俪
俭
修
俯
俱
俳
俸
俺
俾
倌
倍
倏
倒
倔
倘
候
倚
倜
借
倡
値
倦
倩
倪
倬
倭
倶
债
值
倾
偃
假
偈
偌
偎
偏
偕
做
停
健
偶
偷
偻
偿
傀
傅
傍
傚
傣
傥
储
傩
催
傲
傻
働
像
僖
僚
僧
僭
僮
僵
僻
儆
儋
儒
儡
儿
兀
允
元
兄
充
兆
先
光
克
免
児
兑
兔
兖
党
兜
兢
入
全
八
公
六
兮
兰
共
兲
关
兴
兵
其
具
典
兹
养
兼
兽
冀
内
円
冇
冈
冉
册
再
冏
冒
冕
冗
写
军
农
冠
冢
冤
冥
冨
冬
冯
冰
冲
决
况
冶
冷
冻
冼
冽
冾
净
凄
准
凇
凉
凋
凌
减
凑
凛
凝
几
凡
凤
処
凪
凭
凯
凰
凳
凶
凸
凹
出
击
函
凿
刀
刁
刃
分
切
刈
刊
刍
刎
刑
划
列
刘
则
刚
创
初
删
判
刨
利
别
刮
到
制
刷
券
刹
刺
刻
刽
剁
剂
剃
剉
削
剌
前
剐
剑
剔
剖
剜
剣
剤
剥
剧
剩
剪
副
割
剽
剿
劈
力
劝
办
功
加
务
劣
动
助
努
劫
劭
励
劲
劳
労
劵
効
劾
势
勃
勇
勉
勋
勐
勒
勖
勘
募
勤
勧
勺
勾
勿
匀
包
匆
匈
匍
匐
匕
化
北
匙
匝
匠
匡
匣
匪
匮
匹
区
医
匾
匿
十
千
卅
升
午
卉
半
卍
华
协
卑
卒
卓
单
卖
南
単
博
卜
卞
卟
占
卡
卢
卤
卦
卧
卫
卮
卯
印
危
即
却
卵
卷
卸
卿
厂
厄
厅
历
厉
压
厌
厕
厘
厚
厝
原
厢
厥
厦
厨
厩
厮
厳
去
县
叁
参
又
叉
及
友
双
反
収
发
叔
取
受
变
叙
叛
叟
叠
叡
口
古
句
另
叨
叩
只
叫
召
叭
叮
可
台
叱
史
右
叵
叶
号
司
叹
叻
叼
叽
吁
吃
各
吆
合
吉
吊
吋
同
名
后
吏
吐
向
吒
吓
吕
吖
吗
君
吝
吞
吟
吠
吡
否
吧
吨
吩
含
听
吭
吮
启
吱
吴
吵
吸
吹
吻
吼
吽
吾
呀
呃
呆
呈
告
呋
呎
呐
呓
呕
呗
员
呛
呜
呢
呤
呦
周
呱
呲
味
呵
呷
呸
呻
呼
命
咀
咁
咂
咄
咆
咋
和
咎
咏
咐
咒
咔
咕
咖
咗
咘
咙
咚
咛
咣
咤
咦
咧
咨
咩
咪
咫
咬
咭
咯
咱
咲
咳
咸
咻
咽
咿
哀
品
哂
哄
哆
哇
哈
哉
哋
哌
响
哎
哏
哐
哑
哒
哔
哗
哟
哥
哦
哧
哨
哩
哪
哭
哮
哲
哺
哼
哽
唁
唆
唇
唉
唏
唐
唑
唔
唠
唤
唧
唬
售
唯
唰
唱
唳
唷
唾
啃
啄
商
啉
啊
啕
啖
啜
啡
啤
啥
啦
啧
啪
啫
啬
啮
啰
啱
啲
啵
啶
啷
啸
啻
啼
啾
喀
喂
喃
善
喆
喇
喉
喊
喋
喏
喔
喘
喙
喜
喝
喟
喧
喰
喱
喳
喵
営
喷
喹
喺
喻
喽
嗅
嗑
嗒
嗓
嗔
嗖
嗜
嗝
嗟
嗡
嗣
嗤
嗦
嗨
嗪
嗬
嗯
嗲
嗳
嗷
嗽
嘀
嘅
嘈
嘉
嘌
嘎
嘘
嘚
嘛
嘞
嘟
嘢
嘣
嘤
嘧
嘭
嘱
嘲
嘴
嘶
嘹
嘻
嘿
噌
噎
噔
噗
噙
噜
噢
噤
器
噩
噪
噬
噱
噶
噻
噼
嚎
嚏
嚓
嚟
嚣
嚷
嚼
囊
囍
囔
囗
囚
四
囝
回
囟
因
囡
团
団
囤
囧
囫
园
困
囱
囲
図
围
囹
固
国
图
囿
圃
圄
圆
圈
圏
圜
土
圣
圧
在
圩
圭
地
圳
场
圻
圾
址
坂
均
坊
坍
坎
坏
坐
坑
块
坚
坛
坝
坞
坟
坠
坡
坤
坦
坨
坪
坯
坳
坵
坷
垂
垃
垄
型
垒
垚
垛
垠
垢
垣
垦
垩
垫
垭
垮
埂
埃
埋
城
埔
埕
埗
域
埠
埤
埵
埸
培
基
埼
堀
堂
堃
堆
堇
堑
堕
堙
堡
堤
堪
堰
堵
堺
堿
塌
塑
塔
塘
塚
塞
塩
填
塬
塭
塾
墀
境
墅
墉
墒
墓
増
墘
墙
增
墟
墨
墩
壁
壅
壆
壊
壑
壕
壤
士
壬
壮
声
売
壳
壶
壹
处
备
変
复
夏
夔
夕
外
夙
多
夜
够
大
天
太
夫
夭
央
夯
失
头
夷
夸
夹
夺
奂
奄
奇
奈
奉
奋
奎
奏
契
奔
奕
奖
套
奘
奚
奠
奢
奥
女
奴
奶
奸
她
好
如
妃
妄
妆
妇
妈
妊
妍
妒
妓
妖
妘
妙
妞
妣
妤
妥
妨
妩
妪
妮
妲
妳
妹
妻
妾
姆
姉
姊
始
姐
姑
姒
姓
委
姗
姚
姜
姝
姣
姥
姨
姪
姫
姬
姹
姻
姿
威
娃
娄
娅
娆
娇
娉
娑
娓
娘
娜
娟
娠
娣
娥
娩
娱
娲
娴
娶
娼
婀
婆
婉
婊
婕
婚
婢
婧
婪
婴
婵
婶
婷
婺
婿
媒
媚
媛
媞
媲
媳
媾
嫁
嫂
嫉
嫌
嫑
嫔
嫖
嫘
嫚
嫡
嫣
嫦
嫩
嫲
嬅
嬉
嬗
嬛
嬢
嬴
嬷
嬿
孀
子
孑
孔
孕
孖
字
存
孙
孚
孛
孜
孝
孟
孢
季
孤
学
孩
孪
孬
孰
孱
孳
孵
孺
孽
宁
它
宅
宇
守
安
宋
完
宏
宓
宕
宗
官
宙
定
宛
宜
宝
实
実
宠
审
客
宣
室
宥
宦
宪
宫
宰
害
宴
宵
家
宸
容
宽
宾
宿
寂
寄
寅
密
寇
富
寐
寒
寓
寛
寝
寞
察
寡
寥
寨
寮
寰
寸
对
寺
寻
导
対
寿
封
専
射
将
尉
尊
小
少
尔
尕
尖
尘
尚
尝
尤
尧
尬
就
尴
尸
尹
尺
尻
尼
尽
尾
尿
局
屁
层
屄
居
屈
屉
届
屋
屌
屎
屏
屐
屑
展
属
屠
屡
履
屯
山
屹
屿
岀
岁
岂
岌
岐
岑
岔
岖
岗
岘
岙
岚
岛
岩
岫
岬
岭
岱
岳
岷
岸
峇
峋
峒
峙
峡
峤
峥
峦
峨
峪
峭
峰
峻
崁
崂
崆
崇
崎
崔
崖
崛
崧
崩
崭
崴
崽
嵇
嵊
嵋
嵌
嵘
嵩
嵬
嵯
嶂
嶋
嶙
巅
巍
川
州
巡
巢
工
左
巧
巨
巩
巫
差
己
已
巳
巴
巷
巻
巽
巾
巿
币
市
布
帅
帆
师
希
帐
帑
帕
帖
帘
帚
帛
帜
帝
带
帧
席
帮
帯
帰
帷
常
帼
帽
幂
幄
幅
幌
幔
幕
幡
幢
干
平
年
并
幸
幺
幻
幼
幽
广
庁
広
庄
庆
庇
床
序
庐
库
应
底
庖
店
庙
庚
府
庞
废
庠
度
座
庭
庵
庶
康
庸
庹
庾
廃
廉
廊
廓
廖
延
廷
建
廿
开
弁
异
弃
弄
弈
弊
弋
式
弑
弓
引
弗
弘
弛
弟
张
弥
弦
弧
弩
弭
弯
弱
弹
强
弼
弾
彅
归
当
录
彗
彝
形
彤
彦
彧
彩
彪
彬
彭
彰
影
彷
役
彻
彼
往
征
径
待
徇
很
徉
徊
律
徐
徒
従
徕
得
徘
徙
徜
御
徨
循
徬
微
徳
徴
徵
德
徼
徽
心
必
忆
忌
忍
忏
忐
忑
忒
忖
志
忘
忙
応
忠
忡
忤
忧
忪
快
忱
念
忻
忽
忿
怀
态
怂
怅
怆
怎
怏
怒
怔
怕
怖
怙
怜
思
怠
怡
急
怦
性
怨
怪
怯
怵
总
怼
恁
恃
恋
恍
恐
恒
恕
恙
恚
恢
恣
恤
恨
恩
恪
恫
恬
恭
息
恰
恳
恵
恶
恸
恺
恻
恼
恿
悄
悉
悌
悍
悔
悖
悚
悟
悠
患
悦
您
悩
悪
悬
悯
悱
悲
悴
悸
悻
悼
情
惆
惇
惊
惋
惑
惕
惘
惚
惜
惟
惠
惦
惧
惨
惩
惫
惬
惭
惮
惯
惰
想
惴
惶
惹
惺
愁
愆
愈
愉
愍
意
愕
愚
感
愣
愤
愧
愫
愿
慈
慌
慎
慑
慕
慢
慧
慨
慰
慵
慷
憋
憎
憔
憧
憨
憩
憬
憾
懂
懈
懊
懋
懑
懒
懦
懵
懿
戈
戊
戌
戍
戎
戏
成
我
戒
戕
或
战
戚
戛
戟
戡
戦
截
戬
戮
戳
戴
户
戸
戻
戾
房
所
扁
扇
扈
扉
手
才
扎
扑
扒
打
扔
払
托
扛
扣
扦
执
扩
扪
扫
扬
扭
扮
扯
扰
扱
扳
扶
批
扼
找
承
技
抄
抉
把
抑
抒
抓
投
抖
抗
折
抚
抛
抜
択
抟
抠
抡
抢
护
报
抨
披
抬
抱
抵
抹
押
抽
抿
拂
拄
担
拆
拇
拈
拉
拌
拍
拎
拐
拒
拓
拔
拖
拗
拘
拙
拚
招
拜
拟
拡
拢
拣
拥
拦
拧
拨
择
括
拭
拮
拯
拱
拳
拴
拷
拼
拽
拾
拿
持
挂
指
挈
按
挎
挑
挖
挙
挚
挛
挝
挞
挟
挠
挡
挣
挤
挥
挨
挪
挫
振
挲
挹
挺
挽
捂
捅
捆
捉
捋
捌
捍
捎
捏
捐
捕
捞
损
捡
换
捣
捧
捩
据
捶
捷
捺
捻
掀
掂
掇
授
掉
掌
掏
掐
排
掖
掘
掠
探
掣
接
控
推
掩
措
掬
掰
掲
掳
掴
掷
掸
掺
揃
揄
揆
揉
揍
描
提
插
揖
握
揣
揩
揪
揭
援
揶
揸
揹
揽
搀
搁
搂
搅
搏
搐
搓
搔
搜
搞
搡
搪
搬
搭
携
搽
摀
摁
摄
摆
摇
摈
摊
摒
摔
摘
摞
摧
摩
摸
摹
撂
撃
撅
撇
撑
撒
撕
撚
撞
撤
撩
撬
播
撮
撰
撵
撷
撸
撼
擀
擂
擅
操
擎
擒
擘
擞
擢
擦
攀
攒
攘
攞
攥
攫
支
收
攸
改
攻
放
政
故
效
敌
敍
敏
救
敕
敖
教
敛
敝
敞
敢
散
敦
敬
数
敲
整
敷
文
斋
斌
斎
斐
斑
斓
斗
料
斛
斜
斟
斡
斤
斥
斧
斩
斫
断
斯
新
方
於
施
旁
旃
旅
旋
旌
旎
族
旖
旗
无
既
日
旦
旧
旨
早
旬
旭
旮
旱
时
旷
旺
旻
昀
昂
昆
昇
昉
昊
昌
明
昏
易
昔
昕
昙
星
映
春
昧
昨
昭
是
昱
昴
昵
昶
昼
显
晁
晃
晋
晌
晏
晒
晓
晔
晕
晖
晗
晚
晞
晟
晤
晦
晨
晩
普
景
晰
晴
晶
晷
智
晾
暂
暄
暇
暌
暐
暑
暖
暗
暝
暧
暨
暮
暱
暴
暸
暹
曙
曜
曝
曦
曰
曲
曳
更
曹
曼
曾
替
最
月
有
朋
服
朐
朔
朕
朗
望
朝
期
朦
木
未
末
本
札
术
朱
朴
朵
机
朽
杀
杂
权
杆
杈
杉
李
杏
材
村
杓
杖
杜
杞
束
杠
条
来
杨
杭
杯
杰
杳
杵
杷
杼
松
板
极
构
枇
枉
枋
析
枕
林
枚
果
枝
枢
枣
枪
枫
枭
枯
枰
枱
枳
架
枷
枸
柄
柏
某
柑
柒
染
柔
柘
柚
柜
柞
柠
柢
查
柩
柬
柯
柱
柳
柴
柿
栀
栃
栄
栅
标
栈
栉
栋
栎
栏
树
栓
栖
栗
校
栩
株
样
核
根
格
栽
栾
桀
桁
桂
桃
桅
框
案
桉
桌
桎
桐
桑
桓
桔
桜
桠
桡
桢
档
桥
桦
桧
桨
桩
桶
梁
梅
梆
梏
梓
梗
梢
梦
梧
梨
梭
梯
械
梳
梵
梶
检
棂
棉
棋
棍
棒
棕
棘
棚
棠
棣
森
棱
棵
棹
棺
椁
椅
椋
植
椎
椒
検
椪
椭
椰
椹
椽
椿
楂
楔
楚
楝
楞
楠
楣
楫
楮
楷
楸
楹
楼
楽
概
榄
榆
榈
榉
榔
榕
榖
榛
榜
榨
榫
榭
榱
榴
榷
榻
槁
槃
槌
槎
槐
様
槛
槟
槭
槲
槻
槽
槿
樊
樟
模
権
横
樯
樱
樵
樽
樾
橄
橇
橐
橘
橙
橡
橱
橹
橼
檀
檄
檎
檐
檗
檬
欠
次
欢
欣
欧
欲
欸
欺
款
歆
歇
歉
歌
歓
歙
歛
止
正
此
步
武
歧
歩
歪
歯
歳
歴
歹
死
歼
殁
殃
殆
殇
殉
殊
残
殒
殓
殖
殡
殴
段
殷
殿
毁
毂
毅
毋
母
毎
每
毒
毓
比
毕
毗
毘
毙
毛
毡
毫
毯
毽
氏
氐
民
氓
气
氖
気
氙
氛
氟
氡
氢
氤
氦
氧
氨
氪
氮
氯
氰
氲
水
氷
永
氹
汀
汁
求
汆
汇
汉
汐
汕
汗
汛
汝
汞
江
池
污
汤
汨
汩
汪
汰
汲
汴
汶
汹
汽
汾
沁
沂
沃
沅
沈
沉
沌
沏
沐
沓
沙
沛
沟
没
沢
沣
沥
沦
沧
沪
沫
沭
沮
沱
河
沸
油
治
沼
沽
沾
沿
泄
泉
泊
泌
泓
法
泗
泛
泞
泠
泡
波
泣
泥
注
泪
泫
泮
泯
泰
泱
泳
泵
泷
泸
泻
泼
泽
泾
洁
洄
洋
洒
洗
洙
洛
洞
津
洪
洮
洱
洲
洵
洸
洹
活
洼
洽
派
流
浃
浄
浅
浆
浇
浊
测
济
浏
浑
浒
浓
浔
浙
浚
浜
浣
浦
浩
浪
浬
浮
浯
浴
海
浸
涂
涅
消
涉
涌
涎
涓
涔
涕
涙
涛
涝
涞
涟
涠
涡
涣
涤
润
涧
涨
涩
涪
涮
涯
液
涵
涸
涿
淀
淄
淅
淆
淇
淋
淌
淑
淖
淘
淙
淞
淡
淤
淦
淫
淬
淮
深
淳
混
淹
添
淼
清
済
渉
渊
渋
渍
渎
渐
渔
渗
渚
渝
渠
渡
渣
渤
渥
温
渭
港
渲
渴
游
渺
湃
湄
湍
湖
湘
湛
湟
湫
湮
湳
湾
湿
満
溃
溅
溉
溏
源
溜
溟
溢
溥
溧
溪
溯
溱
溴
溶
溺
滁
滂
滇
滋
滑
滓
滔
滕
滚
滝
滞
滟
满
滢
滤
滥
滦
滨
滩
滴
漂
漆
漉
漏
漓
演
漕
漠
漩
漪
漫
漯
漱
漳
漾
潆
潇
潋
潍
潘
潜
潞
潟
潢
潦
潧
潭
潮
潴
潸
潺
潼
澄
澈
澍
澎
澜
澡
澧
澳
澹
激
濂
濑
濒
濠
濡
濬
濮
濯
瀑
瀚
瀛
瀞
瀬
灌
灏
灞
火
灬
灭
灯
灰
灵
灶
灸
灼
灾
灿
炀
炁
炅
炉
炊
炎
炒
炔
炕
炖
炙
炜
炫
炬
炭
炮
炯
炳
炷
炸
点
炼
炽
烁
烂
烃
烈
烊
烘
烙
烛
烟
烤
烦
烧
烨
烩
烫
烬
热
烯
烷
烹
烽
焉
焊
焕
焖
焗
焘
焙
焚
焜
焦
焯
焰
焱
然
焼
煅
煊
煌
煎
煖
煜
煞
煤
煦
照
煨
煮
煲
煸
煽
熄
熊
熏
熔
熙
熟
熠
熨
熬
熵
熹
燃
燄
燊
燎
燔
燕
燥
燧
燮
燿
爆
爪
爬
爰
爱
爵
父
爷
爸
爹
爻
爽
片
版
牌
牍
牒
牙
牛
牝
牟
牠
牡
牢
牦
牧
物
牯
牲
牴
牵
特
牺
犀
犁
犄
犊
犍
犒
犬
犯
状
犷
犸
犹
狂
狄
狈
狎
狐
狒
狗
狙
狞
狠
狡
狩
独
狭
狮
狰
狱
狸
狼
猎
猕
猖
猗
猛
猜
猝
猥
猩
猪
猫
猬
献
猴
猷
猾
猿
獐
獒
獗
獠
獣
獭
獾
玄
率
玉
王
玑
玖
玛
玟
玠
玥
玩
玫
玮
环
现
玲
玳
玷
玺
玻
珀
珂
珅
珈
珉
珊
珍
珏
珐
珑
珙
珞
珠
珣
珥
珩
珪
班
珮
珲
珺
球
琅
理
琇
琉
琊
琍
琏
琐
琛
琢
琥
琦
琨
琪
琬
琮
琰
琲
琳
琴
琵
琶
琼
瑀
瑁
瑄
瑕
瑗
瑙
瑚
瑛
瑜
瑞
瑟
瑠
瑯
瑰
瑶
瑾
璀
璁
璃
璇
璋
璎
璐
璜
璞
璟
璧
璨
璿
瓒
瓜
瓢
瓣
瓤
瓦
瓮
瓯
瓴
瓶
瓷
甄
甘
甙
甚
甜
生
甥
用
甩
甫
甬
甭
田
由
甲
申
电
男
甸
町
画
甾
畀
畅
界
畏
畑
畔
留
畜
略
畦
番
畲
畳
畴
畸
畹
畿
疆
疏
疑
疔
疖
疗
疙
疚
疝
疟
疡
疣
疤
疥
疫
疮
疯
疱
疲
疳
疵
疸
疹
疼
疽
疾
痂
病
症
痈
痉
痊
痍
痒
痔
痕
痘
痛
痞
痢
痣
痤
痧
痨
痪
痫
痰
痱
痴
痹
痺
痼
痿
瘀
瘁
瘘
瘙
瘟
瘠
瘢
瘤
瘦
瘩
瘪
瘫
瘴
瘸
瘾
癌
癖
癜
癞
癣
癫
癸
発
登
白
百
皂
的
皆
皇
皈
皋
皎
皑
皓
皖
皙
皮
皱
皴
皿
盂
盅
盆
盈
益
盎
盏
盐
监
盒
盔
盖
盗
盘
盛
盟
盥
目
盯
盱
盲
直
相
盹
盼
盾
省
眈
眉
看
県
眙
真
眠
眦
眨
眩
眯
眶
眷
眸
眺
眼
着
睁
睇
睐
睑
睛
睡
睢
督
睥
睦
睨
睫
睬
睹
睽
睾
睿
瞄
瞅
瞇
瞋
瞌
瞎
瞑
瞒
瞓
瞟
瞠
瞥
瞧
瞩
瞪
瞬
瞭
瞰
瞳
瞻
瞿
矍
矗
矛
矜
矢
矣
知
矩
矫
短
矮
石
矶
矽
矾
矿
码
砂
砌
砍
砒
研
砖
砗
砚
砝
砣
砥
砧
砭
砰
砲
破
砷
砸
砺
砼
砾
础
硅
硐
硒
硕
硝
硫
硬
确
硼
碁
碇
碉
碌
碍
碎
碑
碓
碗
碘
碚
碛
碟
碣
碧
碰
碱
碳
碴
碾
磁
磅
磊
磋
磐
磕
磡
磨
磬
磲
磷
磺
礁
礡
礴
示
礼
社
祀
祁
祂
祇
祈
祉
祎
祐
祖
祗
祚
祛
祜
祝
神
祟
祠
祢
祥
票
祭
祯
祷
祸
祺
禀
禁
禄
禅
福
禛
禧
禹
禺
离
禽
禾
秀
私
秃
秆
秉
秋
种
科
秒
秘
租
秣
秤
秦
秧
秩
秭
积
称
秸
移
秽
稀
程
稍
税
稔
稗
稚
稞
稠
稣
稲
稳
稷
稹
稻
稼
稽
稿
穂
穆
穗
穴
究
穷
穹
空
穿
突
窃
窄
窈
窍
窑
窒
窓
窕
窖
窗
窘
窜
窝
窟
窠
窥
窦
窨
窿
立
竖
站
竜
竞
竟
章
竣
童
竭
端
竹
竺
竽
竿
笃
笆
笈
笋
笏
笑
笔
笙
笛
笞
笠
符
笨
第
笹
笺
笼
等
筊
筋
筏
筐
筑
筒
答
策
筛
筝
筠
筱
筲
筵
筷
筹
签
简
箍
箐
箔
箕
算
箝
管
箩
箫
箭
箱
箴
箸
篁
篆
篇
篑
篓
篙
篝
篡
篪
篮
篱
篷
簇
簌
簦
簧
簪
簷
簸
簿
籁
籍
籐
米
类
籼
籽
粄
粉
粑
粒
粕
粗
粘
粟
粤
粥
粧
粪
粮
粱
粲
粳
粹
粼
粽
精
粿
糅
糊
糍
糕
糖
糗
糙
糜
糟
糠
糬
糯
糸
系
紊
素
索
紧
紫
累
経
絮
絵
継
続
綦
総
縁
縄
繁
繇
繋
纂
纠
红
纣
纤
约
级
纨
纪
纫
纬
纭
纯
纰
纱
纲
纳
纵
纶
纷
纸
纹
纺
纽
纾
线
绀
练
组
绅
细
织
终
绊
绍
绎
经
绑
绒
结
绔
绕
绘
给
绚
绛
络
绝
绞
统
绡
绢
绣
绥
绦
继
绩
绪
绫
续
绮
绯
绰
绳
维
绵
绶
绷
绸
绻
综
绽
绾
绿
缀
缄
缅
缆
缇
缈
缉
缎
缓
缔
缕
编
缘
缙
缚
缜
缝
缠
缢
缤
缥
缨
缩
缪
缭
缮
缰
缱
缴
缸
缺
罂
罄
罐
网
罔
罕
罗
罚
罡
罢
罩
罪
置
署
罹
羁
羊
羌
美
羔
羚
羞
羟
羡
群
羧
羯
羲
羸
羹
羽
羿
翁
翅
翊
翌
翎
翔
翘
翟
翠
翡
翦
翩
翰
翱
翳
翻
翼
耀
老
考
耄
者
耆
耋
而
耍
耐
耒
耕
耗
耘
耙
耦
耨
耳
耶
耷
耸
耻
耽
耿
聂
聆
聊
聋
职
聒
联
聘
聚
聪
聴
聿
肃
肄
肆
肇
肉
肋
肌
肏
肓
肖
肘
肚
肛
肝
肠
股
肢
肤
肥
肩
肪
肮
肯
肱
育
肴
肺
肽
肾
肿
胀
胁
胃
胄
胆
背
胍
胎
胖
胚
胛
胜
胝
胞
胡
胤
胥
胧
胫
胭
胯
胰
胱
胳
胴
胶
胸
胺
能
脂
脆
脇
脉
脊
脍
脏
脐
脑
脓
脖
脘
脚
脯
脱
脲
脳
脸
脾
腆
腈
腊
腋
腌
腐
腑
腓
腔
腕
腥
腩
腭
腮
腰
腱
腴
腹
腺
腻
腼
腾
腿
膀
膈
膊
膏
膑
膘
膛
膜
膝
膦
膨
膳
膺
膻
臀
臂
臃
臆
臊
臓
臣
臧
自
臬
臭
至
致
臻
臼
臾
舀
舂
舅
舆
舌
舍
舎
舐
舒
舔
舖
舗
舛
舜
舞
舟
航
舫
般
舰
舱
舵
舶
舷
舸
船
舺
舾
艇
艋
艘
艮
良
艰
色
艳
艹
艺
艾
节
芃
芈
芊
芋
芍
芎
芒
芙
芜
芝
芡
芥
芦
芩
芪
芫
芬
芭
芮
芯
花
芳
芷
芸
芹
芽
芾
苁
苄
苇
苋
苍
苏
苑
苒
苓
苔
苕
苗
苛
苜
苞
苟
苡
苣
若
苦
苫
苯
英
苷
苹
苻
茁
茂
范
茄
茅
茉
茎
茏
茗
茜
茧
茨
茫
茬
茭
茯
茱
茴
茵
茶
茸
茹
茼
荀
荃
荆
草
荏
荐
荒
荔
荖
荘
荚
荞
荟
荠
荡
荣
荤
荥
荧
荨
荪
荫
药
荳
荷
荸
荻
荼
荽
莅
莆
莉
莎
莒
莓
莘
莞
莠
莪
莫
莱
莲
莴
获
莹
莺
莽
莿
菀
菁
菅
菇
菈
菊
菌
菏
菓
菖
菘
菜
菟
菠
菡
菩
菱
菲
菽
萁
萃
萄
萋
萌
萍
萎
萘
萝
萤
营
萦
萧
萨
萩
萱
萸
萼
落
葆
著
葚
葛
葡
董
葩
葫
葬
葭
葱
葳
葵
葺
蒂
蒋
蒙
蒜
蒟
蒡
蒨
蒲
蒸
蒹
蒻
蒿
蓁
蓄
蓉
蓑
蓓
蓖
蓝
蓟
蓦
蓬
蓼
蓿
蔑
蔓
蔗
蔚
蔡
蔫
蔬
蔵
蔷
蔺
蔻
蔼
蔽
蕃
蕈
蕉
蕊
蕙
蕤
蕨
蕲
蕴
蕻
蕾
薄
薅
薇
薏
薙
薛
薨
薪
薬
薯
薰
薹
藉
藏
藐
藓
藕
藜
藤
藩
藻
藿
蘑
蘸
蘼
虎
虏
虐
虑
虔
虚
虞
虢
虫
虬
虱
虹
虻
虽
虾
蚀
蚁
蚂
蚊
蚌
蚓
蚕
蚜
蚝
蚣
蚤
蚩
蚪
蚯
蚱
蚵
蛀
蛆
蛇
蛊
蛋
蛎
蛐
蛔
蛙
蛛
蛟
蛤
蛭
蛮
蛰
蛳
蛹
蛾
蜀
蜂
蜃
蜇
蜈
蜊
蜍
蜒
蜓
蜕
蜗
蜘
蜚
蜜
蜡
蜢
蜥
蜱
蜴
蜷
蜻
蜿
蝇
蝈
蝉
蝌
蝎
蝗
蝙
蝠
蝴
蝶
蝼
螂
螃
融
螨
螯
螳
螺
蟀
蟆
蟋
蟑
蟒
蟠
蟹
蟾
蠕
蠛
蠡
蠢
蠹
血
衄
衅
行
衍
衔
街
衙
衞
衡
衢
衣
补
表
衩
衫
衬
衮
衰
衲
衷
衹
衾
衿
袁
袂
袄
袅
袈
袋
袍
袒
袖
袜
袤
袪
被
袭
袱
裁
裂
装
裆
裔
裕
裘
裙
裟
裤
裨
裱
裳
裴
裸
裹
裾
褂
褐
褒
褓
褔
褚
褥
褪
褫
褶
襁
襄
襟
西
要
覃
覆
覇
覚
覧
観
见
观
规
觅
视
览
觉
觊
觎
觐
觑
角
觞
解
觥
触
言
訳
詹
誉
誓
読
警
譬
譲
计
订
认
讥
讧
讨
让
讪
讫
训
议
讯
记
讲
讳
讴
讶
讷
许
讹
论
讼
讽
设
访
诀
证
诃
评
诅
识
诈
诉
诊
诋
词
诏
译
试
诗
诘
诙
诚
诛
话
诞
诟
诠
诡
询
诣
诤
该
详
诧
诩
诫
诬
语
误
诰
诱
诲
说
诵
诶
请
诸
诺
读
诽
课
诿
谀
谁
调
谄
谅
谆
谈
谊
谋
谌
谍
谎
谏
谐
谑
谒
谓
谔
谕
谗
谘
谙
谚
谛
谜
谟
谢
谣
谤
谥
谦
谧
谨
谩
谪
谬
谭
谯
谱
谲
谴
谶
谷
豁
豆
豇
豉
豊
豌
豚
象
豢
豪
豫
豹
豺
貂
貅
貌
貔
貘
贝
贞
负
贡
财
责
贤
败
账
货
质
贩
贪
贫
贬
购
贮
贯
贰
贱
贲
贴
贵
贷
贸
费
贺
贻
贼
贾
贿
赁
赂
赃
资
赅
赈
赊
赋
赌
赎
赏
赐
赓
赔
赖
赘
赚
赛
赝
赞
赠
赡
赢
赣
赤
赦
赧
赫
赭
走
赳
赴
赵
赶
起
趁
超
越
趋
趟
趣
足
趴
趵
趸
趺
趾
跃
跄
跆
跋
跌
跎
跑
跖
跚
跛
距
跟
跤
跨
跩
跪
路
跳
践
跷
跹
跺
跻
踉
踊
踌
踏
踝
踞
踟
踢
踩
踪
踮
踱
踵
踹
蹂
蹄
蹇
蹈
蹉
蹊
蹋
蹑
蹒
蹙
蹦
蹩
蹬
蹭
蹲
蹴
蹶
蹼
蹿
躁
躇
躏
身
躬
躯
躲
躺
転
軽
车
轧
轨
轩
转
轭
轮
软
轰
轲
轴
轶
轻
轼
载
轿
较
辄
辅
辆
辇
辈
辉
辊
辍
辐
辑
输
辕
辖
辗
辘
辙
辛
辜
辞
辟
辣
辨
辩
辫
辰
辱
边
辺
辻
込
辽
达
迁
迂
迄
迅
过
迈
迎
运
近
返
还
这
进
远
违
连
迟
迢
迤
迥
迦
迩
迪
迫
迭
述
迷
迸
迹
迺
追
退
送
适
逃
逅
逆
选
逊
逍
透
逐
递
途
逗
通
逛
逝
逞
速
造
逢
逮
逵
逶
逸
逻
逼
逾
遁
遂
遅
遇
遍
遏
遐
遑
遒
道
遗
遛
遢
遣
遥
遨
遭
遮
遴
遵
遶
遽
避
邀
邂
邃
邈
邋
邑
邓
邕
邛
邝
邢
那
邦
邨
邪
邬
邮
邯
邰
邱
邳
邵
邸
邹
邺
邻
郁
郅
郊
郎
郑
郜
郝
郡
郢
郤
郦
郧
部
郫
郭
郴
郷
郸
都
鄂
鄙
鄞
鄢
鄱
酉
酊
酋
酌
配
酐
酒
酗
酚
酝
酢
酣
酥
酩
酪
酬
酮
酯
酰
酱
酵
酶
酷
酸
酿
醇
醉
醋
醍
醐
醒
醚
醛
醪
醮
醯
醴
醺
采
釉
释
里
重
野
量
金
釜
鈪
鉄
鉴
銭
銮
鎏
鎗
鏖
鑫
针
钉
钊
钎
钏
钒
钓
钗
钙
钛
钜
钝
钞
钟
钠
钡
钢
钣
钤
钥
钦
钧
钨
钩
钮
钯
钰
钱
钳
钴
钵
钺
钻
钼
钾
钿
铀
铁
铂
铃
铄
铅
铆
铉
铎
铐
铛
铜
铝
铠
铡
铢
铣
铤
铨
铩
铬
铭
铮
铰
铲
铵
银
铸
铺
链
铿
销
锁
锂
锄
锅
锆
锈
锉
锋
锌
锏
锐
锑
错
锚
锟
锡
锢
锣
锤
锥
锦
锭
键
锯
锰
锲
锵
锹
锺
锻
镀
镁
镂
镇
镉
镌
镍
镐
镑
镕
镖
镗
镛
镜
镣
镭
镯
镰
镳
镶
长
関
闘
门
闪
闫
闭
问
闯
闰
闲
间
闵
闷
闸
闹
闺
闻
闽
闾
阀
阁
阂
阅
阆
阇
阈
阉
阎
阐
阑
阔
阕
阖
阙
阚
阜
队
阡
阪
阮
阱
防
阳
阴
阵
阶
阻
阿
陀
陂
附
际
陆
陇
陈
陋
陌
降
限
陕
陛
陟
陡
院
除
陨
险
陪
陲
陵
陶
陷
険
隅
隆
隈
隋
隍
随
隐
隔
隘
隙
障
隠
隣
隧
隶
隼
隽
难
雀
雁
雄
雅
集
雇
雉
雌
雍
雎
雏
雑
雒
雕
雨
雪
雯
雰
雳
零
雷
雹
雾
需
霁
霄
霆
震
霈
霉
霊
霍
霎
霏
霑
霓
霖
霜
霞
霭
霰
露
霸
霹
霾
青
靓
靖
静
靛
非
靠
靡
面
靥
革
靳
靴
靶
靼
鞅
鞋
鞍
鞑
鞘
鞠
鞣
鞭
韦
韧
韩
韬
韭
音
韵
韶
頼
页
顶
顷
项
顺
须
顼
顽
顾
顿
颁
颂
预
颅
领
颇
颈
颉
颊
颌
颍
颐
频
颓
颔
颖
颗
题
颚
颛
颜
额
颞
颠
颡
颢
颤
颦
颧
风
飒
飓
飕
飘
飙
飚
飞
食
飨
餐
餮
饍
饕
饥
饨
饪
饬
饭
饮
饯
饰
饱
饲
饴
饵
饶
饷
饺
饼
饽
饿
馀
馁
馄
馅
馆
馈
馋
馍
馏
馒
馔
首
馗
香
馥
馨
駄
駅
駆
験
騨
驒
马
驭
驮
驯
驰
驱
驳
驴
驶
驷
驸
驹
驻
驼
驾
驿
骁
骂
骄
骅
骆
骇
骈
骊
骋
验
骏
骐
骑
骗
骚
骛
骜
骞
骠
骡
骤
骥
骧
骨
骰
骶
骷
骸
骼
髂
髅
髋
髓
高
髦
髪
髯
髻
鬃
鬓
鬟
鬣
鬼
魁
魂
魄
魅
魇
魍
魏
魔
鮨
鱼
鱿
鲁
鲈
鲍
鲑
鲛
鲜
鲟
鲢
鲤
鲨
鲫
鲱
鲲
鲶
鲷
鲸
鳃
鳄
鳅
鳌
鳍
鳕
鳖
鳗
鳝
鳞
鸟
鸠
鸡
鸢
鸣
鸥
鸦
鸨
鸪
鸭
鸯
鸳
鸵
鸽
鸾
鸿
鹂
鹃
鹄
鹅
鹈
鹉
鹊
鹌
鹏
鹑
鹕
鹘
鹜
鹞
鹤
鹦
鹧
鹫
鹭
鹰
鹳
鹿
麂
麋
麒
麓
麝
麟
麦
麸
麺
麻
麽
麾
黄
黍
黎
黏
黑
黒
黔
默
黛
黜
黝
黠
黯
鼋
鼎
鼐
鼓
鼠
鼬
鼹
鼻
鼾
齁
齐
齢
齿
龄
龅
龈
龊
龋
龌
龙
龚
龛
龟
︰
︱
︶
︿
﹁
﹂
﹏
﹐
﹑
﹒
﹔
﹕
﹖
﹗
﹙
﹚
﹝
﹞
﹡
﹣
！
＂
＃
＄
％
＆
＇
（
）
＊
＋
，
－
．
／
０
１
２
３
４
５
６
７
８
９
：
；
＜
＝
＞
？
＠
［
＼
］
＾
＿
｀
ａ
ｂ
ｃ
ｄ
ｅ
ｆ
ｇ
ｈ
ｉ
ｊ
ｋ
ｌ
ｍ
ｎ
ｏ
ｐ
ｑ
ｒ
ｓ
ｔ
ｕ
ｖ
ｗ
ｘ
ｙ
ｚ
｛
｜
｝
～
｡
｢
｣
､
･
ｰ
ｼ
￣
￥
😂
yam
10
2017
12
11
2016
20
30
15
06
lofter
##s
2015
by
16
14
18
13
24
17
2014
21
##0
22
19
25
23
com
100
00
05
2013
##a
03
09
08
28
##2
50
01
04
##1
27
02
2012
##3
26
##e
07
##8
##5
##6
##4
##9
##7
29
2011
40
##t
2010
##o
##d
##i
2009
##n
app
www
the
##m
31
##c
##l
##y
##r
##g
2008
60
http
200
qq
##p
80
##f
google
pixnet
90
cookies
tripadvisor
500
##er
##k
35
##h
facebook
2007
2000
70
##b
of
##x
##u
45
300
iphone
32
1000
2006
48
ip
36
in
38
3d
##w
##ing
55
ctrip
##on
##v
33
to
34
400
id
2005
it
37
windows
llc
top
99
42
39
000
led
at
##an
41
51
52
46
49
43
53
44
##z
android
58
and
59
2004
56
vr
5000
2003
47
blogthis
twitter
54
##le
150
ok
2018
57
75
cn
no
ios
##in
##00
800
on
te
3000
65
2001
360
95
ig
lv
120
##ng
##us
pc
600
##te
85
2002
88
##ed
html
ncc
wifi
email
64
blog
is
##10
mail
online
##al
dvd
##ic
studio
##℃
##ia
line
vip
72
##q
98
##ce
##en
for
##is
##ra
##es
##j
usb
net
cp
1999
asia
4g
diy
new
3c
ta
66
language
vs
apple
tw
86
web
##ne
ipad
62
you
##re
101
68
##tion
ps
de
bt
pony
atm
##2017
1998
67
##ch
ceo
##or
go
##na
av
pro
cafe
96
pinterest
97
63
##ta
more
said
##2016
1997
mp3
700
##ll
nba
jun
##20
92
tv
1995
pm
61
76
nbsp
250
##ie
linux
##ma
cd
110
hd
##17
78
##ion
77
6000
am
##th
##st
94
##se
##et
69
180
gdp
my
105
81
abc
89
flash
79
one
93
1990
1996
##ck
gps
##ly
106
2020
91
##ge
4000
1500
xd
boss
isbn
1994
org
##ry
me
love
##11
73
##12
3g
##ter
##ar
71
82
##la
hotel
130
1970
pk
83
87
140
ie
##os
##30
##el
74
##50
seo
cpu
##ml
p2p
84
may
sun
tue
internet
cc
posted
youtube
##at
##man
ii
##15
abs
nt
pdf
yahoo
ago
1980
##it
news
mac
104
##me
java
1992
spa
##de
##nt
hk
all
plus
la
1993
##mb
##16
##ve
west
##da
160
air
##ps
##to
1989
logo
htc
php
https
fi
momo
##son
sat
##ke
##80
ebd
suv
wi
day
apk
##88
##um
mv
galaxy
wiki
or
brake
1200
this
1991
mon
po
javascript
life
home
june
##ss
system
900
pp
1988
world
fb
4k
br
##as
ic
ai
leonardo
safari
##60
live
free
xx
wed
win7
kiehl
##co
lg
o2o
##go
us
235
1949
mm
kanye
##90
##2015
##id
jr
##ey
123
rss
##sa
##ro
##am
##no
thu
fri
350
##sh
##ki
103
comments
name
##pe
##ine
max
1987
8000
uber
##mi
##ton
wordpress
office
1986
1985
##ment
107
bd
win10
##ld
##li
gmail
bb
dior
##rs
##ri
##rd
up
cad
##®
dr
read
##21
##io
##99
url
1984
pvc
paypal
show
policy
##40
##ty
##18
with
##01
txt
102
##ba
dna
from
post
mini
ar
taiwan
john
##ga
privacy
agoda
##13
##ny
word
##24
##22
##by
##ur
##hz
1982
##ang
265
cookie
netscape
108
##ka
##ad
house
share
note
ibm
code
hello
nike
sim
survey
##016
1979
1950
wikia
##32
##017
5g
cbc
##tor
##kg
1983
##rt
##14
campaign
store
2500
os
##ct
##ts
##°
170
api
##ns
365
excel
##ao
##nd
university
163
518
##70
##ya
##il
##25
pierre
ipo
0020
897
##23
hotels
##ian
125
years
6606
##ers
##26
high
##day
time
##ay
bug
##line
##be
xp
10000
coco
##dy
sony
##ies
1978
microsoft
david
people
##ha
1960
instagram
intel
##ot
iso
1981
##va
115
##mo
##land
xxx
man
co
##ation
baby
220
##pa
##ol
1945
7000
tag
450
##ue
msn
##31
oppo
##ca
control
##om
st
chrome
##ure
be
lol
##19
##bo
240
lady
##100
##way
4600
##ko
##do
##un
4s
corporation
168
##ni
herme
##28
978
##up
##06
ui
##ds
ppt
admin
three
bbc
re
128
##48
ca
##015
##35
hp
##ee
tpp
##ive
××
root
##cc
##ble
##ity
adobe
park
114
et
oled
city
##ex
##ler
##ap
china
##book
20000
view
##ice
global
##km
your
hong
##mg
out
##ms
ng
ebay
##29
menu
ubuntu
##cy
rom
##view
open
ktv
do
server
##lo
if
english
##oo
1600
##02
step1
kong
club
135
july
inc
1976
mr
hi
##net
touch
##ls
##ii
michael
lcd
##05
##33
phone
james
step2
1300
ios9
##box
dc
##ley
samsung
111
280
pokemon
css
##ent
##les
s8
atom
play
bmw
##said
sa
etf
ctrl
##55
2025
##2014
##66
adidas
amazon
1958
##ber
##ner
visa
##77
##der
1800
connectivity
##hi
firefox
109
118
hr
so
style
mark
pop
ol
skip
1975
as
##27
##ir
##61
190
mba
##ai
le
##ver
1900
lte
super
113
129
##ron
amd
like
are
##ster
we
##sk
paul
data
international
##ft
longchamp
ssd
good
##ート
##ti
reply
##my
apr
star
##ker
source
136
js
112
get
force
photo
##one
126
##2013
##ow
link
bbs
1972
goods
##lin
python
119
##ip
game
##ics
blue
##●
520
##45
page
itunes
##03
1955
260
1968
gt
gif
618
##ff
##47
group
about
bar
ganji
##nce
music
lee
not
1977
1971
1973
##per
an
faq
comment
days
##ock
116
##bs
1974
1969
v1
player
1956
xbox
sql
fm
f1
139
##ah
210
##lv
##mp
##000
melody
1957
550
17life
199
1966
xml
market
##au
##71
999
##04
what
gl
##95
##age
tips
##68
book
##ting
mysql
can
1959
230
##ung
wonderland
watch
10℃
##ction
9000
mar
mobile
1946
1962
article
##db
part
party
1967
1964
1948
##07
##ore
##op
dj
##78
##38
010
main
225
1965
##ong
art
320
ad
134
020
##73
117
pm2
japan
228
##08
ts
1963
##ica
der
sm
##36
2019
##wa
ct
##64
1937
search
##85
##tv
##di
macbook
service
type
750
##ier
##si
##75
##ok
best
goris
lock
cf
3m
big
##ut
ftp
carol
##vi
1961
happy
sd
##ac
122
anti
pe
cnn
iii
1920
138
1940
esp
jan
tags
##98
##51
august
vol
##86
154
##fs
##sion
design
ac
press
jordan
ppp
that
key
check
##tt
1080p
##lt
power
##42
1952
##bc
vivi
he
133
121
jpg
##rry
201
175
3500
1947
nb
##ted
##rn
1954
usd
##t00
master
001
model
##58
al
##09
1953
##34
ram
goo
##ui
127
1930
red
##ary
rpg
item
##pm
##41
270
##za
project
##2012
hot
td
##ger
##62
650
##44
gr2
black
electronic
nfc
year
asus
html5
cindy
##hd
m3
132
esc
##od
booking
##53
fed
tvb
##81
##ina
mit
165
chan
192
distribution
next
peter
bios
steam
cm
1941
pk10
##ix
##65
##91
dec
nasa
##ana
icecat
b1
will
##46
li
se
##ji
##ard
oct
##ain
jp
##ze
##bi
cio
##56
smart
h5
##39
##port
curve
vpn
##nm
##dia
utc
##52
rmvb
chanel
a4
miss
##and
##im
media
who
##63
she
girl
5s
124
vera
class
vivo
king
##ei
national
ab
1951
5cm
888
145
ipod
ap
1100
211
ms
2756
##69
mp4
msci
##po
##89
131
mg
index
380
##bit
##out
##zz
##97
##67
158
apec
photoshop
opec
##96
##tes
##ast
##ling
##ory
1938
##ical
kitty
content
##43
step3
##cn
win8
155
vc
1400
iphone7
robert
tcl
137
beauty
##87
en
dollars
##ys
##oc
step
pay
yy
a1
##2011
##lly
##ks
1939
188
download
1944
sep
exe
ph
school
gb
center
pr
street
##board
uv
##37
##lan
winrar
##que
##ua
##com
1942
1936
480
gpu
ettoday
fu
tom
##54
##ren
##via
149
##72
b2b
144
##79
##tch
rose
arm
mb
##49
##ial
##nn
nvidia
step4
mvp
york
156
##イ
how
cpi
591
2765
gov
kg
joe
##xx
mandy
pa
##ser
copyright
fashion
1935
don
ecu
##ist
##art
erp
wap
have
##lm
talk
##ek
##ning
##if
ch
##ite
video
1943
cs
san
iot
look
##84
##2010
##ku
october
##ux
trump
##hs
##ide
box
141
first
##ins
april
##ight
##83
185
angel
protected
aa
151
162
x1
m2
##fe
##×
##ho
size
143
min
ofo
fun
ex
hdmi
food
dns
march
chris
kevin
##lla
##pp
##ec
ag
ems
6s
720p
##rm
##ham
off
##92
asp
team
fandom
ed
299
##ell
info
##82
sina
4066
161
##able
##ctor
330
399
315
dll
rights
ltd
idc
jul
1927
142
ma
surface
##76
304
mall
eps
146
green
##59
map
space
donald
v2
sodu
##light
1931
148
1700
310
reserved
htm
##han
##57
2d
178
mod
##ise
##tions
152
ti
##shi
doc
1933
icp
055
wang
##ram
shopping
aug
##pi
##well
now
wam
b2
##hu
236
1928
##gb
266
f2
##93
153
mix
##ef
##uan
bwl
##plus
##res
core
##ess
tea
hktvmall
nhk
##ate
list
##ese
301
feb
4m
inn
nov
159
12345
daniel
##ci
pass
##bet
##nk
coffee
202
ssl
airbnb
##ute
fbi
skype
ea
cg
sp
##fc
##www
yes
edge
alt
007
##94
fpga
##ght
##gs
iso9001
##ile
##wood
##uo
image
lin
icon
american
##em
1932
set
says
##king
##tive
blogger
##74
256
147
##ox
##zy
##red
##ium
##lf
nokia
claire
##ding
november
lohas
##500
##tic
##cs
##che
##ire
##gy
##ult
db
january
win
166
road
ptt
198
##fa
##mer
anna
pchome
udn
ef
420
##time
##tte
2030
g20
white
1929
308
garden
eleven
di
chen
309b
777
172
young
cosplay
4500
bat
##123
##tra
kindle
npc
steve
etc
##ern
call
xperia
ces
travel
sk
s7
##ous
1934
##int
183
edu
file
cho
qr
##car
##our
186
##ant
##ｄ
eric
1914
rends
##jo
mastercard
##2000
kb
##min
290
##ino
vista
##ris
##ud
jack
2400
##set
169
pos
1912
##her
##ou
taipei
205
beta
232
##fi
express
255
body
##ill
user
december
##ick
tweet
richard
##av
##ᆫ
iphone6
##dd
views
##mark
321
pd
times
level
##ash
10g
point
5l
##ome
208
##ak
george
q2
206
wma
tcp
##200
full
mlb
##lle
##watch
tm
run
179
911
smith
business
##und
1919
color
##tal
222
171
##less
moon
4399
##rl
update
pcb
shop
499
157
little
end
##mhz
van
dsp
easy
660
##house
##key
history
oh
##001
##hy
##web
oem
let
was
##2009
##gg
review
##wan
182
##°c
203
uc
title
##val
united
233
2021
##ons
doi
trivago
overdope
sbs
##ance
grand
special
imf
216
##so
audi
##he
london
william
##rp
##ake
science
beach
cfa
amp
ps4
880
##800
##link
##hp
crm
ferragamo
bell
make
##eng
195
under
zh
photos
2300
##style
via
176
da
##gi
company
i7
##ray
thomas
370
ufo
i5
##max
plc
ben
back
research
8g
173
mike
##pc
september
189
##ace
vps
february
167
pantos
wp
lisa
1921
jquery
night
long
offer
##berg
##news
1911
ray
wto
over
164
340
##all
##rus
1924
##888
##works
##→
187
martin
test
ling
km
15000
fda
v3
##ja
outlet
family
##ea
##top
story
##ness
salvatore
##lu
204
swift
215
room
oracle
##ul
1925
sam
b2c
week
pi
rock
##ean
##300
##gle
cctv
after
chinese
##back
powered
x2
##tan
1918
##nes
canon
only
181
##zi
##las
say
##oe
184
##sd
221
##bot
##world
##zo
sky
made
top100
just
1926
pmi
802
234
gap
##vr
177
les
174
ball
vogue
vi
ing
cos
##list
##ort
##lon
last
##tc
##of
##bus
##gen
real
eva
a3
nas
##lie
##ria
##coin
##bt
his
212
cat
nata
vive
health
drive
sir
du
cup
##ook
##sy
alex
msg
tour
##word
193
ebooks
r8
block
318
2200
nice
pvp
207
months
1905
rewards
##ther
1917
0800
##xi
##sc
micro
850
gg
op
1922
daily
m1
264
true
##bb
ml
##tar
##ky
anthony
196
253
##yo
state
218
##ara
##aa
##rc
##tz
##ston
gear
##eo
##ade
ge
see
1923
##win
##ura
ss
heart
##den
##ita
down
##sm
el
png
2100
610
rakuten
whatsapp
bay
dream
add
##use
680
311
pad
gucci
mpv
##ode
##fo
island
223
jason
214
chicago
##hone
io
sogo
be2
##ology
990
cloud
vcd
##con
2～3
##ford
##joy
##kb
##rade
but
##ach
docker
##ful
rfid
ul
##ase
hit
ford
##star
580
##○
a2
sdk
reading
edited
##are
cmos
##mc
238
siri
light
##ella
bloomberg
##read
pizza
##ison
jimmy
##vm
college
node
journal
ba
18k
##play
245
##cer
magic
##yu
191
jump
288
tt
##ings
asr
##lia
3200
step5
network
##cd
mc
1234
273
##600
2800
money
1280
430
bl
act
##tus
tokyo
##rial
##life
emba
##ae
saas
tcs
##rk
##wang
summer
##sp
ko
##ving
390
premium
netflix
##ヒ
uk
mt
##lton
right
frank
two
209
##ple
##cal
021
##sen
##ville
hold
nexus
dd
##ius
##mah
tila
zero
820
ce
##tin
resort
##ws
charles
old
p10
5d
report
##360
##ru
bus
vans
lt
##est
pv
links
rebecca
##dm
azure
##365
limited
bit
4gb
##mon
1910
moto
##eam
213
1913
var
eos
226
blogspot
699
e3
dos
dm
fc
##ments
##ik
##kw
boy
##bin
##ata
960
er
219
##vin
##tu
##ula
194
station
##ature
835
files
zara
hdr
top10
nature
950
magazine
s6
marriott
avira
case
tab
##ran
tony
##home
oculus
im
##ral
jean
saint
cry
307
rosie
##force
##ini
ice
##bert
##nder
##mber
pet
2600
plurk
##sis
720
##ence
tim
##ω
##nc
##name
log
ips
great
ikea
malaysia
unix
3600
##ncy
##nie
12000
akb48
##ye
##oid
404
##chi
oa
##1000
##orm
##rf
275
##ware
980
ho
##pro
text
##era
560
bob
227
##ub
##2008
8891
scp
avi
##zen
2022
mi
wu
museum
qvod
apache
lake
jcb
ni
##hr
hill
302
ne
weibo
490
ruby
##row
4d
iv
##ish
github
306
mate
312
##スト
##lot
##ane
andrew
##tina
t1
rf
ed2k
##vel
##900
way
final
ns
5a
705
197
sweet
bytes
##ene
231
##cker
##2007
##px
100g
229
rs
low
14k
care
630
##fork
leave
rm
edition
##gan
##zon
##qq
##google
##ism
gold
224
explorer
##zer
toyota
category
select
visual
restaurant
##md
posts
s1
##ico
angelababy
123456
217
sports
s3
mbc
1915
shell
x86
candy
##new
kbs
face
xl
470
##here
4a
v8
dram
##ual
##vice
3a
##wer
sport
q1
ios10
public
int
card
ep
au
rt
1080
bill
kim
460
wan
##uk
x3
298
0t
scott
##ming
239
e5
##3d
h7n9
worldcat
brown
##vo
##led
##580
##ax
249
410
##ert
paris
polo
925
##lr
599
capital
##hing
bank
cv
1g
##chat
adc
##ule
2m
digital
hotmail
268
##pad
870
bbq
quot
##ring
before
wali
mcu
2k
2b
costco
316
north
333
switch
##city
philips
##mann
management
panasonic
##cl
##vd
##ping
##rge
alice
##lk
css3
##ney
vision
alpha
##ular
##400
##tter
lz
mode
gre
1916
pci
##tm
237
##yan
##let
work
war
coach
ah
mary
##ᅵ
huang
##pt
a8
pt
follow
##berry
1895
##ew
a5
ghost
##wn
##og
south
##code
girls
##rid
action
villa
git
r11
table
games
##cket
error
##ag
here
##ame
##gc
qa
##lis
gmp
##gin
##cher
yu
wedding
##tis
demo
dragon
530
soho
social
bye
##rant
river
orz
acer
325
##ats
261
del
##ven
440
ups
305
value
macd
##dn
661
##ano
ll
##urt
##rent
continue
script
##wen
##ect
paper
263
319
shift
##chel
##cat
258
x5
fox
243
car
aaa
##blog
loading
##yn
##tp
kuso
799
si
sns
rmb
vdc
forest
central
prime
help
ultra
##rmb
241
square
688
##field
##reen
##ors
##ju
c1
start
510
##air
##map
cdn
##wo
cba
stephen
m8
100km
##get
opera
##base
##ood
vsa
##aw
##ail
251
count
t2
##ᅡ
##een
2700
hop
##gp
vsc
tree
##eg
##ose
816
285
##ories
##shop
alphago
v4
1909
simon
##ᆼ
zip
##sta
louis
cr
bas
bc
##yer
hadoop
##ube
##wi
1906
0755
hola
##low
place
centre
5v
d3
##fer
252
##750
##media
281
540
exchange
262
series
##san
eb
##bank
q3
##nge
##mail
take
##lp
259
1888
client
east
cache
event
vincent
##nse
sui
855
##stry
246
##zone
ga
apps
sea
##ab
248
cisco
##rner
kymco
##care
dha
##pu
##yi
royal
p1
annie
269
collection
kpi
playstation
257
866
bh
##bar
queen
505
radio
1904
andy
armani
##xy
manager
##ery
##share
spring
raid
johnson
1908
##ob
volvo
hall
##ball
v6
our
taylor
##hk
bi
242
##cp
kate
bo
water
technology
##rie
277
##ona
##sl
hpv
303
gtx
hip
stone
##lex
##rum
namespace
620
##ale
##atic
des
##erson
##ql
##ves
##type
enter
d2
##168
##mix
##bian
a9
jj
ky
##lc
access
movie
##hc
tower
##ration
##mit
##nch
ua
tel
prefix
##o2
1907
##point
1901
ott
##http
##ury
baidu
##ink
member
##logy
bigbang
nownews
##js
##shot
##tb
247
eba
##tics
##lus
v5
spark
##ama
there
##ions
god
##lls
##down
hiv
##ress
burberry
day2
##kv
jeff
related
film
edit
joseph
283
##ark
cx
32gb
order
g9
30000
##ans
##tty
s5
##bee
thread
xr
buy
sh
005
land
spotify
mx
##ari
276
##verse
sf
why
244
nego
sunny
dom
exo
401
666
positioning
fit
rgb
##tton
278
kiss
alexa
adam
lp
mp
##ties
##llow
amy
##du
np
002
institute
271
##rth
##lar
2345
590
##des
sidebar
imax
site
##cky
##kit
##ime
##009
season
323
##fun
gogoro
a7
pu
lily
fire
##vis
30ml
##cture
information
close
friday
yi
nick
##tta
##tel
6500
##lock
cbd
economy
254
267
tinker
double
375
8gb
voice
##app
oops
channel
today
985
##right
raw
xyz
jim
edm
##cent
7500
supreme
814
ds
##its
##asia
dropbox
##tti
books
272
100ml
##tle
##ller
##ken
##more
##boy
sex
309
##dom
t3
##ider
##unch
1903
810
feel
5500
##put
s2
mo
##gh
men
ka
amoled
div
##tr
##n1
port
howard
##tags
ken
dnf
##nus
adsense
##а
ide
buff
thunder
##town
##ique
has
##body
auto
pin
##erry
tee
295
number
##the
##013
object
psp
cool
udnbkk
16gb
##mic
miui
##tro
most
r2
##alk
##nity
1880
428
s4
law
version
##oa
n1
sgs
docomo
##tf
##ack
henry
fc2
##ded
##sco
##014
##rite
286
linkedin
##ada
##now
wii
##ndy
##ika
##xp
2gb
##bu
q10
oo
b6
come
##rman
cheese
ming
maker
##gm
nikon
##fig
ppi
kelly
ted
md
003
fgo
tech
##tto
dan
soc
##gl
##len
hair
earth
640
521
img
##pper
##a1
acca
##ition
##ference
suite
##ig
outlook
##mond
##cation
398
##pr
279
358
##999
282
64gb
3800
345
airport
##over
284
jones
##ith
lab
##su
co2
town
piece
##llo
no1
vmware
24h
##qi
focus
reader
##admin
##ora
tb
false
##log
1898
know
lan
838
##ces
f4
##ume
motel
stop
##oper
na
flickr
##af
##─
pose
williams
local
##ound
##cg
##site
##iko
274
5m
gsm
con
##ath
1902
friends
##hip
cell
317
##rey
780
cream
##cks
012
##dp
sso
324
shtml
song
swiss
##mw
lumia
xdd
string
tiffany
522
marc
insee
russell
sc
dell
##ations
camera
289
##vs
##flow
##late
classic
287
##nter
stay
g1
mtv
512
##ever
##lab
##nger
qe
sata
ryan
d1
cms
##cing
su
292
3300
editor
296
##nap
security
sunday
association
##ens
##700
##bra
acg
mkv
##ign
jonathan
gary
build
labels
##oto
tesla
moba
qi
gohappy
general
ajax
1024
society
##test
##urs
wps
fedora
##ich
mozilla
328
##480
##dr
usa
urn
##lina
grace
##die
##try
##ader
1250
elle
570
##chen
##ᆯ
price
##ten
##ough
eq
##hen
states
push
session
balance
wow
506
##cus
##py
when
##ward
##ep
34e
wong
library
prada
##cle
running
##ree
313
ck
date
q4
##ctive
##ool
mk
##ira
##163
388
die
secret
rq
dota
buffet
e6
##ez
pan
368
ha
##card
##cha
2a
alan
day3
eye
f3
##end
france
keep
adi
rna
tvbs
##ala
solo
nova
##tail
support
##ries
##ved
base
copy
iis
fps
##ways
hero
profile
fish
mu
ssh
entertainment
chang
##wd
click
cake
##ond
pre
##tom
kic
pixel
##ov
##fl
product
6a
##pd
dear
##gate
es
yumi
audio
##sky
echo
bin
where
##ture
329
##ape
find
sap
isis
nand
##101
##load
##ream
band
a6
525
never
##post
festival
##we
555
guide
314
zenfone
##ike
335
gd
forum
jessica
strong
alexander
##ould
software
allen
##ious
program
360°
else
##gar
please
rc
##ggle
##ric
bim
50000
##own
eclipse
355
brian
3ds
##side
061
361
##other
##tech
##ator
485
engine
##ged
plaza
##fit
cia
ngo
westbrook
shi
tbs
sci
291
reuters
##ily
##hn
af
##cil
bridge
very
##cel
1890
cambridge
##ize
15g
##aid
##data
790
frm
##head
award
butler
##sun
meta
##mar
america
ps3
puma
pmid
lc
670
kitchen
##lic
day1
future
##text
##page
##rris
pm1
##ket
fans
1001
christian
bot
kids
trackback
##hai
c3
display
##hl
n2
1896
idea
##sent
airmail
##ug
##men
pwm
028
##lution
369
852
awards
schemas
354
asics
wikipedia
font
##tional
##vy
c2
293
##dget
##ein
contact
pepper
339
294
##uel
##ument
730
##hang
q5
##sue
rain
##ndi
wei
swatch
##cept
331
popular
##ste
##tag
p2
501
trc
1899
##west
##live
justin
honda
ping
messenger
##rap
v9
543
unity
025
leo
##tone
##テ
##ass
uniqlo
##010
502
her
jane
memory
moneydj
##tical
human
12306
##m2
coc
miacare
##mn
tmt
##core
vim
kk
##may
fan
target
use
too
338
435
2050
867
737
fast
##2c
services
##ope
omega
energy
##わ
pinkoi
1a
##なから
##rain
jackson
##ement
374
366
p9
rd
##ᆨ
1111
##tier
##vic
zone
385
690
dl
isofix
cpa
m4
322
kimi
davis
##lay
lulu
##uck
050
weeks
qs
##hop
920
ae
##ear
eia
405
##fly
korea
jpeg
boost
##ship
small
1860
eur
297
425
valley
##iel
simple
##ude
rn
k2
##ena
non
patrick
feed
5757
process
well
##thing
they
aws
lu
pink
##ters
##kin
board
##vertisement
wine
##ien
unicode
##dge
r1
359
##tant
isp
##012
standard
402
##150
matt
##fu
326
##iner
x7
886
##uce
sao
##ev
##file
9678
403
shirt
6l
##rio
##hat
givenchy
ya
bang
##lio
monday
crystal
##abc
336
head
890
##vc
##rity
cnc
7866
ipv6
null
1897
##ost
yang
tiger
##fet
352
##＝
dji
327
ji
maria
##come
foundation
3100
##beth
1m
601
active
##aft
##don
3p
sr
349
emma
##khz
living
415
353
1889
341
709
457
sas
x6
##face
pptv
x4
##mate
han
sophie
##jing
337
fifa
##mand
other
sale
##gn
##mmy
bad
nana
nbc
##wu
note7
single
##340
##bel
window
##dio
##ht
union
age
382
##ivity
domain
neo
##isa
##lter
5k
f5
steven
##cts
powerpoint
tft
self
g2
ft
zol
##act
mwc
381
343
408
eds
ace
##room
previous
author
tomtom
il
##ets
hu
financial
bp
5t
chi
1gb
##hg
fairmont
cross
008
gay
h2
function
356
also
1b
625
##raph
1894
##ils
i3
334
avenue
##host
##bon
##tsu
message
navigation
50g
fintech
h6
8cm
##ject
##vas
##firm
credit
##wf
xxxx
form
##nor
##space
huawei
plan
json
sbl
##dc
machine
921
392
wish
##120
##sol
windows7
edward
development
washington
##nsis
lo
818
##sio
##ym
##bor
planet
##wt
ieee
gpa
camp
ann
gm
##tw
##oka
connect
##rss
##work
##atus
wall
chicken
soul
2mm
##times
fa
##ather
##cord
009
##eep
hitachi
gui
harry
##pan
e1
disney
##press
wind
386
frigidaire
##tl
liu
hsu
332
basic
von
ev
learning
##ull
expedia
archives
change
##wei
santa
cut
ins
6gb
turbo
brand
cf1
508
004
return
747
##rip
h1
##nis
128gb
3t
application
emc
rx
##oon
384
quick
412
15058
wilson
wing
chapter
##bug
beyond
##cms
##dar
##oh
zoom
e2
trip
sb
##nba
rcep
342
aspx
ci
080
gc
gnu
##count
advanced
dance
dv
##url
##ging
367
8591
shadow
battle
346
##cia
emily
##tation
host
ff
sars
##mini
##mporary
##ering
nc
4200
798
##next
cma
##mbps
##gas
##ift
##dot
455
amana
426
##ros
ir
##eet
##ible
710
##aka
dcs
iq
l1
##lor
maggie
##011
##iu
588
830
##gt
1tb
articles
create
##burg
##iki
database
fantasy
##rex
##cam
dlc
dean
##you
hard
path
gaming
victoria
maps
cb
##lee
##itor
systems
##xt
416
p3
sarah
760
##nan
407
486
x9
install
second
626
##ann
##ph
##rcle
##nic
860
##nar
ec
768
metro
chocolate
##rian
##table
skin
##sn
395
mountain
6m
7x24
ib
4800
##jia
creative
g5
g3
357
parker
ecfa
village
18000
sylvia
hbl
##ques
##onsored
##x2
##v4
##tein
ie6
383
##stack
389
ver
##ads
##baby
sound
bbe
##110
##lone
##uid
ads
022
gundam
351
thinkpad
006
scrum
match
##ave
mems
##470
##oy
##talk
glass
lamigo
span
##eme
job
jay
wade
kde
498
##lace
ocean
tvg
##covery
##ners
##rea
junior
think
##aine
cover
##ision
##sia
##bow
msi
413
458
406
##love
711
801
soft
z2
##pl
456
1840
mobil
mind
##uy
427
nginx
##oi
##rr
6221
##mple
##sson
371
##nts
##uard
1868
397
deep
lost
field
gallery
##bia
rate
spf
redis
traction
930
icloud
011
fe
jose
372
##tory
into
sohu
fx
899
379
##hia
##sit
ra
##walk
500g
##pact
pacific
xa
natural
carlo
##250
##walker
1850
##can
cto
gigi
516
pen
##hoo
ob
matlab
##yy
##iti
mango
##bbs
sense
c5
oxford
walker
jennifer
##ola
course
##bre
701
##pus
##rder
lucky
075
ivy
##nia
sotheby
side
##ugh
joy
##orage
##ush
##bat
##dt
364
r9
##2d
##gio
511
country
wear
##lax
##moon
393
seven
study
411
348
8k
evolution
##kk
gs
kd
arduino
344
b12
##lux
arpg
##rdon
cook
##x5
dark
five
##als
##ida
sign
362
something
##nda
387
fresh
tf
1870
422
cam
##mine
##skip
##form
##ssion
education
394
##tee
dyson
stage
##jie
want
##night
epson
pack
##ppy
wd
##eh
##rence
left
##lvin
golden
mhz
discovery
##trix
##n2
loft
##uch
##dra
##sse
speed
1mdb
sorry
welcome
##urn
wave
gaga
##lmer
teddy
##160
611
378
rp
##sha
rar
840
holiday
373
074
##vg
##nos
##rail
gartner
gi
6p
##dium
kit
488
b3
eco
sean
##stone
autocad
nu
##np
f16
write
029
m5
##ias
images
atp
##dk
fsm
504
1350
ve
##xxx
##cake
414
unit
lim
ru
1v
##ification
published
angela
analytics
ak
##nel
gmt
##icon
again
##₂
##bby
ios11
445
waze
9985
##ust
framework
##007
iptv
delete
cl
wwdc
027
##fw
1389
##xon
brandt
##ses
##dragon
tc
vetements
anne
monte
modern
official
##ere
##nne
##oud
etnews
##a2
##graphy
421
863
444
##rtex
l2
##gma
mount
ccd
archive
morning
tan
ddos
e7
day4
gis
453
its
495
factory
bruce
pg
##ito
guest
cdma
##lling
536
n3
mega
eyes
ro
women
dac
church
##jun
singapore
##facebook
6991
starbucks
##tos
##stin
##shine
zen
##mu
tina
20℃
1893
503
465
request
##gence
qt
1886
347
363
q7
##zzi
diary
##tore
409
##ead
468
cst
##osa
canada
agent
va
##jiang
##lam
sg
##nix
##sday
g6
##master
bing
##zl
charlie
thai
##itz
##2f
bonnie
##food
##lent
originals
##stro
##lts
418
##bscribe
children
ntd
hmv
##tment
d5
arts
sms
##pn
539
lifestyle
virtual
##ague
xz
##deo
muji
024
unt
##nnis
1884
396
##ette
fly
441
curry
##pop
release
##cast
073
##ews
##stle
ios7
##ima
787
dog
lenovo
roger
013
cbs
vornado
100m
417
##desk
##ald
1867
9595
2900
##van
oil
some
break
common
##jy
##lines
g7
twice
419
ella
nano
belle
##mes
##self
##note
jb
benz
##ova
451
save
##wing
kai
##hua
##rect
rainer
##unge
448
adsl
##uma
##kins
##zu
##price
county
##med
##mus
rmk
391
address
vm
##group
##hin
##iginal
amg
urban
##oz
jobs
emi
##public
beautiful
##sch
album
##dden
##bell
jerry
works
hostel
miller
##drive
##rmin
376
boot
828
##370
##fx
1885
##nome
##ctionary
##oman
##lish
##cr
##hm
433
##how
432
francis
xi
c919
b5
evernote
##uc
vga
coupe
##urg
##cca
##uality
019
6g
multi
##ett
em
hey
##ani
##tax
##rma
inside
than
740
##jin
ict
bird
notes
##dical
##lli
result
442
iu
ee
438
smap
gopro
##last
yin
pure
998
32g
##dan
##rame
mama
##oot
bean
marketing
##hur
2l
bella
sync
xuite
##ground
515
discuz
##ince
##bay
cj
gmat
apt
##pass
jing
##rix
c4
rich
niusnews
##ello
bag
770
##eting
##mobile
culture
015
377
1020
area
##ience
616
details
gp
universal
silver
dit
private
ddd
u11
##ified
fung
##nny
dx
##520
tai
475
023
##fr
##lean
3s
##pin
429
##rin
25000
ly
rick
##bility
usb3
banner
##baru
##gion
metal
dt
vdf
1871
karl
qualcomm
bear
1010
oldid
ian
jo
##tors
population
##ernel
1882
mmorpg
##mv
##bike
603
ww
friend
##ager
exhibition
##del
##pods
structure
##free
##tings
kl
##rley
##copyright
##mma
california
3400
orange
yoga
4l
canmake
honey
##anda
595
dhl
publishing
##mall
##gnet
513
970
##dog
fishbase
“
”
—
…
‘
’
–
渏
狴
鍴
脃
訹
讘
爫
笫
乸
圶
踳
佡
誔
朸
遄
姵
耞
鲙
葰
骫
絓
緫
鉰
龁
汱
頋
炘
姺
狥
鎴
暒
篿
笊
縔
崄
跐
憝
縢
劎
勂
紽
勍
揾
砃
晥
諟
茦
烍
逯
舥
骢
驽
踦
怃
爉
珷
晙
苅
兝
刞
垱
稂
坜
玭
煻
狅
槺
羾
暚
沇
敡
曵
芢
潗
碦
暊
醘
嶓
刴
崟
篹
秕
瑥
洫
椈
岺
晡
僟
熜
褞
髑
齮
疃
驵
儫
飃
梴
樚
墌
璚
坸
嶃
焐
髁
怐
蚥
葑
傈
潠
瘗
焮
硵
襶
簙
墄
晀
弖
揼
礶
燨
撋
蛘
麧
猡
畄
峐
苝
峸
猂
乲
糼
兪
呫
橃
濎
骀
磿
簺
尞
厸
賔
襳
籕
墭
骹
鲣
荺
镔
篃
蠂
殛
橏
镒
軱
楰
瓟
殚
湤
卛
冝
蒴
釴
惙
噐
襒
攴
氉
漀
燡
鹷
垞
螵
葍
裠
姘
鼈
蠮
獦
隞
瓅
棤
钖
莤
鼇
莔
鏙
揦
姃
溠
筺
澟
簎
祳
腯
漧
穈
湩
骔
箎
俍
逎
窊
讃
韱
鰗
伀
绺
塕
郔
駪
埶
瓝
铽
驠
陬
酔
氜
钘
蚢
锪
蓶
垸
髼
劄
鸴
鼒
琽
聍
鳂
裒
眬
丳
隚
葇
烎
梪
峩
鵔
廨
蕯
鉧
潲
丠
寈
擶
橵
岈
埈
屻
髎
蓍
穄
僰
曔
肭
瑴
嵲
瀄
蚗
悊
嚩
觌
髌
贌
玧
麌
钅
悆
踽
漷
郍
芠
躄
甓
錋
堍
鈓
巣
曡
唃
衁
眚
澏
闿
磔
雘
娡
氘
蒁
慔
讁
弌
濓
塨
藇
穸
錖
窀
獀
瓘
螇
蹜
呄
艨
碻
剚
滀
澙
甀
鲕
棰
搉
篭
傝
兕
胷
粍
愎
跣
蚒
奌
髭
脷
桸
偍
抝
荁
艏
魖
茕
饦
虣
髀
衒
磳
粺
肜
鍡
敒
礨
敳
鄜
荌
蒒
埿
礵
蓃
烝
嬁
稪
墣
陁
炧
厖
訿
薁
枻
濉
貜
栊
瀣
袛
癗
诎
虴
晳
熣
眡
韪
侔
莗
唪
沝
濞
嵮
璏
洣
彉
蚠
翶
誜
屝
豸
篏
鷇
旳
孨
丌
羱
滱
嬬
馲
裶
嘕
鱵
愲
扲
縚
踕
奡
靁
幁
榑
噭
嚭
豀
螀
萮
揬
頟
謦
迵
瘌
钹
鼭
蕰
垕
钌
磻
箦
傜
菪
姙
椧
鲦
吇
趌
劼
柟
嘝
拏
眀
呅
杕
爔
旽
狖
黸
鬬
菵
吚
撉
痡
昷
輚
夲
恌
噀
籺
悢
壵
湗
暭
蘷
臑
歘
貣
椂
澭
觇
怫
漭
瘇
羴
绠
赇
栴
垔
楀
垜
頔
窛
灐
麛
肈
妗
眧
糒
畇
躰
堋
儇
戞
衇
牖
寉
庑
帉
湐
眏
驆
觜
隃
賛
拊
旜
藊
撦
痳
勗
涑
薐
掍
鍧
槪
頞
摥
瀊
渹
钭
坔
疄
糈
蚮
柭
稓
椊
徛
堔
彳
垺
趫
槥
粂
稌
怩
抴
逥
疒
蔊
泆
欁
苘
囬
戭
炵
暲
蹚
谺
囖
鏼
浡
簃
僯
岊
骿
莭
鈵
瓉
腙
魶
昖
嘂
豄
銞
刭
矱
磄
黾
楅
邘
臮
嶭
罒
稶
铫
朘
趡
橎
喼
犼
愐
嚿
劐
毖
躗
楻
歊
镡
旿
汵
搢
澫
猐
噰
戯
脁
闚
塀
觭
廸
岿
袚
蒛
羍
薗
鈜
鍝
磈
躱
桴
蟨
巠
缶
煆
郰
郪
悤
貛
胼
硶
薖
铪
嵷
傱
鵸
卬
躆
缧
鐊
錾
媌
閮
聎
侉
乽
弰
酃
琓
苶
螁
駏
徣
啨
涱
栁
鹔
峧
璌
犠
扤
瞉
魫
雺
猁
鳓
纕
妸
逤
脧
鬇
閟
旛
瀜
漈
跂
椑
叕
忎
傧
蛯
沔
捄
氶
麆
玃
幛
蘖
覌
豖
逭
柷
钑
葘
葊
焸
犇
伹
瑷
奻
绗
諵
謢
昬
赀
潡
掦
捈
蝓
鎑
鳢
楜
闼
鮢
褾
矂
脎
鉹
骃
饹
锿
亓
烓
攰
鸑
梼
賏
垎
歗
蠃
欶
沎
彡
燽
塂
鮗
涫
羠
鲯
駦
睎
嵫
饳
邟
畒
莙
柁
刵
瘛
梠
鮌
頯
嗞
嚤
壾
耾
偬
嚡
眊
棻
俷
棜
芲
凴
鈫
桕
槴
謤
浲
袑
艸
邧
濴
呌
淛
搠
哝
玎
轱
纟
葴
筌
喩
龆
鼍
靭
殂
镴
杒
媦
碔
烌
梿
胋
鎅
挿
閧
韴
廗
脗
馫
緭
鉇
浕
鼟
阘
鳦
耠
凷
蟥
乆
伇
慿
偋
羂
毴
寑
舠
鳒
廱
挭
虅
琩
缦
鶁
莼
旟
箂
酂
蚺
埌
轺
窫
醡
砬
挄
賶
虭
燖
湼
蕥
螾
邽
紏
栐
逈
枑
潐
禥
嚋
廵
銝
竫
墛
躔
璛
挓
恜
鞕
禟
舋
裵
诓
贒
铻
鋳
嶷
栻
掱
緵
枌
槱
笤
珫
魬
猇
暤
孁
罇
蛣
圹
鰅
纮
蠊
袷
榀
慥
谳
躀
攗
埢
荬
軮
埆
髴
棷
鷧
澺
趼
牿
邲
缵
妬
弽
鳇
冣
篦
獽
穾
瀀
叜
吣
歬
蘩
箤
噖
箚
櫍
鳀
醑
猟
煝
朳
皡
橾
懫
殄
鶨
閇
衟
罶
珌
阨
蔍
勠
貑
鴖
塜
蝅
惿
暿
痄
夋
亍
苎
耑
鼪
葓
礓
羰
焲
檛
嶝
踇
菰
镄
湉
疴
麞
懃
槵
罠
樉
醨
躙
鸃
澌
呾
帢
裀
齄
逨
巌
儯
谞
酞
錵
鬄
詨
鞡
惢
絯
擤
鸰
諠
鰡
晢
湎
緖
麚
鄹
醌
埥
璪
汚
筫
僽
衠
鮈
隟
黗
粰
枏
洤
粜
钚
衜
埊
珦
侳
皦
钍
糀
欿
昣
旙
鲾
礤
胬
喁
皤
矰
帗
俀
雂
鰔
寘
蘤
昜
垍
菆
訬
慙
宻
翓
荈
穵
哹
湡
昽
匄
渼
蝱
蒬
馓
沞
鼙
蓏
喌
摠
湑
躼
浱
柫
纐
阤
雸
鋧
栨
蓠
稐
櫖
曕
鞁
艴
窳
鄥
侫
蚳
巶
擸
骟
紷
椥
鋐
厡
眎
裃
尪
幙
鏸
崚
锠
庮
狦
锊
犭
禑
盻
湅
嚘
胙
墎
媿
膗
癎
痷
镊
蟺
桮
稊
浛
嵰
怳
鹙
愊
巂
蔇
硎
拑
猃
顦
鐤
黩
琀
嬑
堲
馘
饙
誊
韫
燂
汳
矻
罣
袝
潶
媟
豘
觕
鮧
敨
爿
帡
呪
徸
黆
朁
麏
旲
汊
蟉
澔
玆
枞
倁
鐻
朶
騺
溦
涏
汘
謼
垲
叅
黡
倮
沬
迀
炓
鹲
甍
茌
嶚
灱
劬
膵
勔
牚
鴊
輎
辎
颟
荄
遯
碲
璹
陯
鏻
氆
傿
膫
粇
喑
仉
玚
掟
褰
叇
湜
軰
糁
獈
坆
鯃
獌
郄
楺
廼
餟
玹
礩
杣
虒
鬳
焪
啣
鮾
驈
媖
禊
厣
尛
蝮
诳
鋑
爯
殱
潅
逡
惣
淯
蜲
焵
頣
裈
晘
鄅
卆
畊
邾
覴
苴
鼦
樔
襚
龝
戽
蓘
澣
烑
旯
袿
鹋
蓰
魆
慆
鄪
腢
誖
缂
戥
椗
裖
馉
跕
頩
峕
墤
匂
堩
昍
獇
淃
傉
櫕
锳
朙
浫
樨
樛
箿
舣
槜
馦
擥
坻
鷢
燠
薾
曈
搤
惎
硋
冸
魣
眘
鋾
簶
秊
啐
髙
饡
隑
殍
暠
簋
觯
犱
斝
瞍
冔
骽
滫
徏
骦
敾
挦
玊
矔
菷
燚
囐
刖
敧
廾
猔
阃
抲
惖
盩
赨
湏
籇
橽
踆
鼊
褆
浭
溽
煋
瑹
鬒
谿
跢
垆
鎕
饫
皝
梀
搟
瓡
筼
淍
岃
舩
馿
铖
冩
芴
褀
姤
獚
蜯
痖
槷
黮
慉
妑
煑
涒
钆
繙
戙
哷
靐
髩
蔟
肟
鼯
憞
芀
牻
襞
觧
蚔
袠
耔
亊
洅
崝
瑊
轒
鮘
蝹
譌
幪
奫
椆
粻
褍
呖
塐
鹮
呡
覜
帋
辔
仛
笸
婇
灅
砑
赗
卋
馾
碖
錧
嵤
逖
蹰
樭
镚
菎
溻
騆
帊
抳
沊
絗
虀
虓
欤
鯈
嬕
鄏
飑
揟
鴬
逽
玍
罍
蹯
晹
啩
黹
禐
雫
鯏
炻
儤
珚
庯
钸
蛞
亁
麁
祆
郛
黓
晵
铊
僊
魃
糵
垴
澶
綼
揈
鶂
陭
鷟
秾
蛦
坼
鎁
賉
曩
澻
翃
爟
沰
稺
櫊
滘
狷
畠
摽
鋹
萻
枘
湭
銲
衖
朷
鄿
岽
虍
荵
涶
蹛
垈
糇
耖
鲬
鏮
淰
圢
筓
齑
敇
逓
塆
膥
晫
魈
渕
衋
茝
狊
嫄
喿
柃
愒
佧
喨
礠
辏
蝾
伛
璤
欴
肻
禳
鸮
諓
锃
潨
鑘
碊
蚦
徭
亶
駹
壄
棌
餻
欀
榇
虖
筢
漼
巉
狟
褈
駴
峠
蚚
藞
砵
儱
垇
旵
捝
瀶
椮
譮
晑
佾
汦
櫵
靏
蟇
殕
矸
脰
諎
庣
樋
湁
胊
愙
奨
嫮
貒
阏
厪
藦
灟
颪
洘
羝
埪
螰
嫜
拻
禆
殠
唿
擩
廆
訲
蛱
瑺
煪
鲂
裥
謩
尥
鼆
恧
傊
鏊
惤
砀
醼
驩
嫓
螘
橂
岰
帒
窬
艽
赿
塠
鲀
瑍
朖
罻
璮
尨
藂
黵
銢
牐
尟
渃
嗧
氇
沤
疰
鑐
卨
愼
辁
穉
萠
哴
鵶
秢
蚋
鶧
鄣
缫
磱
厯
寔
亼
舭
緾
盬
祃
澖
缣
甒
燹
剭
蜞
郠
臤
輰
铔
膋
潀
卪
鄯
猨
溎
锒
煘
濇
藁
漥
晄
磪
暳
滭
锘
瀫
侩
烆
綎
勄
頖
荇
愓
晻
狇
擐
嵚
扺
乪
芰
硰
柊
嘷
兤
呰
卄
歨
妢
蒯
缗
孏
耇
玵
酼
帏
鷭
髞
犳
虊
暜
庬
捸
檈
絋
糫
淓
籞
嫽
兣
倄
蚆
禤
拲
鶝
秳
昑
裇
澼
嵵
侂
乇
鍫
獴
筤
饤
黟
鸻
絈
暺
聩
榅
瘜
龀
擪
蚬
哱
皷
漙
蚧
垾
铼
艭
鹒
臵
砉
硾
檦
耪
洡
钶
柍
挵
柹
偨
旹
虸
曛
砫
埧
碪
墼
痩
蠋
嚒
唎
厔
鄚
敩
戫
莋
鍙
滈
璠
兓
汋
鶠
薲
垹
倣
秱
酟
峘
涽
斳
囸
砢
鵖
銎
枾
簏
弤
橞
鬰
迾
聸
鈊
犵
渘
螭
罊
鶆
迒
馃
姽
侻
悳
跴
澚
圕
媂
桚
侎
蘗
莝
揿
蔴
褵
婔
茖
乕
乀
坄
帔
匚
菚
鉏
闟
铑
瞷
柆
褄
鋆
朾
廋
飊
罫
窹
榳
駮
挶
瘿
烚
燇
陜
笀
韘
椟
菫
阋
芇
癍
襕
澢
枠
縯
賱
熇
湪
紞
茻
纴
霦
餤
硓
迆
唭
岕
肸
槰
飜
爼
兟
獢
檺
椳
逄
揠
瑈
騒
脞
舡
鸅
謍
鲭
蹓
咊
弆
咜
袃
阼
蟚
赯
帻
靸
挜
釬
垤
瓐
稭
玘
萭
髤
莶
萐
娀
駣
缯
埅
辀
蓷
窆
僶
螖
扊
騋
刕
嵉
盇
酽
锧
毺
錬
袡
刌
龇
鳣
箌
泐
怑
鬕
赙
趒
鳜
摷
璄
絪
伡
泅
郚
睒
郞
芗
屃
饎
妠
斻
劘
镾
褧
哙
倗
馑
欂
蒺
犲
殹
襈
砡
檊
郇
侼
兾
馟
蜑
僾
湣
酤
瘥
氚
讦
纡
忯
尭
氵
荂
雔
穐
塝
苉
拹
垽
莕
獳
彨
箒
郩
艍
鹢
籚
叾
苾
洰
悺
畾
燐
晜
侐
礇
曀
醊
鱙
偳
嫏
踺
蝂
搫
俈
珛
桞
擆
釪
檑
逴
欹
冱
詧
诨
劻
浐
鵼
豋
絷
櫴
珔
鞳
畎
飉
淜
佸
栔
妁
慬
舝
瑎
礕
闩
埇
杁
叆
桭
奅
鱜
寜
脕
蠒
邙
绉
筯
愖
竔
赩
鵺
岪
鲼
辌
鹇
鍏
惝
豿
庳
秏
曚
韾
麊
汈
怹
哻
暆
馇
胔
伧
卐
鉼
禨
臿
玒
豨
耎
镵
泑
覗
幤
蔠
廐
抇
汯
嶬
蟢
沺
掎
搘
嶕
慇
玶
琡
轓
僜
旑
樬
趆
稨
竘
剺
雱
帙
缹
蔏
骕
蓩
叀
焌
膶
焔
竕
渨
鼏
舃
熛
煕
桗
謇
耵
婼
獓
絇
坋
搊
瑂
曱
兡
竒
绌
矧
袙
笄
躹
璱
葠
牣
栞
霚
膂
倨
繗
灨
媃
雗
蜋
艉
馎
嵎
伷
奓
馞
扢
毵
梈
膮
刜
囘
郲
葹
犫
貊
倴
焓
楖
蘯
褊
阰
菍
鮻
耈
椛
塙
觖
岍
廞
墇
鬺
羭
閰
啗
朆
懬
唻
俛
捽
肧
棈
幐
篲
椫
訄
觚
萆
诒
佁
錴
渒
璷
杍
鹬
擙
砻
囯
覩
嶐
羖
懙
奱
阌
剅
暶
忰
蒇
酎
忸
楗
鉓
龖
鯵
輹
艑
狯
挌
氥
咈
阄
筥
穝
灥
劦
谹
窋
釢
侌
哶
磖
霔
颏
囵
蒽
冂
娫
蕑
鷾
臛
褛
溤
俵
镆
焍
俶
蠏
奷
巄
牜
黰
靇
筘
詶
辵
誎
塲
讵
硪
抻
蠼
甑
蠺
蚃
鼀
錱
蝣
祹
祽
怱
溋
寊
鑅
葈
轞
偪
逌
赟
徤
蟮
嵕
筸
劗
砜
刬
匟
胻
滰
禸
紥
朏
傒
儍
饩
榚
荋
兠
馕
榙
蛏
咅
袬
喾
鮀
牤
茋
勀
泔
蒗
柕
暀
凎
廔
俫
妷
跞
奲
轹
穽
鯓
帨
雈
圠
豗
刲
鞫
耰
糆
岏
燋
嗌
刂
娯
虗
鳑
緜
啭
磤
鵀
堈
欥
梾
逷
堘
濹
栕
睆
菄
鹛
竤
禌
漻
駉
匤
鲋
墐
爓
桷
鲠
絖
缛
鳉
髧
膼
褕
锖
蓜
貕
橚
勲
宼
姀
輭
盭
孴
絣
痆
夶
鹠
泚
鲡
藔
坺
檕
芉
楙
隒
栜
彚
匸
暓
茙
譓
馡
漹
嚜
鳈
脽
賖
蝳
蜹
厹
靺
殳
掔
蹧
榥
晣
禓
姰
鷰
馣
瓿
韔
佖
榯
畂
獍
篌
楲
镸
鹟
甿
胘
苖
垬
娌
跽
寷
趞
鍞
瀔
袢
墕
喞
竩
筳
鵞
嫒
譠
脒
镓
殑
鄌
盍
郹
脋
栂
綗
賎
峄
梜
俧
匲
叚
崃
鲇
踼
薮
嵂
纩
汏
咥
菥
鐖
貎
礅
踯
涖
涍
渌
鯸
蜔
澰
枧
猱
沕
彄
塡
鍱
黕
缾
垐
诹
綂
鳛
窎
縌
卌
癃
翯
歰
穟
婠
蝃
秪
讐
雚
姏
揷
榃
姌
昄
揇
惵
粞
騐
狕
醢
褹
峎
蔩
镮
旔
鐀
潥
瓑
軓
遫
犮
蟁
傤
汍
蕗
辂
攠
寯
囦
葟
酁
馚
巤
稧
蛲
狾
蕫
弨
顸
唖
俻
箠
磉
圙
鄸
嚆
梕
蛚
幒
桝
萉
垪
蕺
怗
飰
蜐
杔
蒢
踙
蛥
郃
裪
魮
燵
阫
棆
祘
獑
畕
镩
艓
甡
庢
趐
踧
馰
宱
羢
竉
鹡
丱
滒
褷
篣
譤
帞
莟
嬥
剟
衘
尓
弮
辳
槩
紻
剢
嗏
趜
珸
橁
唣
秥
酖
泴
柝
窸
摵
佫
蕣
攷
鄍
峹
偊
骾
黢
炝
烄
蔤
酹
醿
艵
冓
猊
逋
誧
裢
誃
儨
鵭
麘
斦
揝
繝
缼
狍
鳫
譼
酓
珧
徃
戤
崜
衤
秫
唂
犂
笥
螋
奣
锓
庋
疍
幜
飤
乹
毚
菢
煴
鲪
浤
濈
渳
枲
旒
倹
恝
袯
秐
壻
鳊
栘
媬
萓
礐
郻
痟
倯
臙
鱎
宂
籓
烮
薫
鍌
澒
皜
坒
镱
鯙
沋
榬
埮
澯
熥
錍
娒
珵
筞
炲
栍
芆
鼱
箢
獬
頀
檋
麃
恦
榞
巓
狲
詃
拀
踶
謈
烉
趯
藨
兞
槖
兛
醂
殟
鸜
琒
嚵
畈
疋
遆
铯
鞥
悫
堠
恱
偒
吘
妺
蕚
叺
焻
俽
囏
禇
鏂
贙
棅
衪
呠
铍
禚
蓱
菣
譇
鵉
蠚
脬
僩
倧
獂
玝
觫
憼
澨
捘
焑
罯
纒
皀
垝
湻
藗
顕
钋
鍑
巏
缞
觙
桒
螣
犨
瓂
寖
阯
虙
罥
呯
诌
袊
艎
縻
穤
踄
逩
箣
鍐
戝
锫
绁
鼔
嘒
鈂
蹘
蚴
杄
鹣
梄
傓
菧
嵖
蠰
嬖
鲖
忷
屚
畯
锴
僄
肫
勦
跅
檃
孶
飇
朩
蠭
鳤
粝
俤
婑
韣
尐
恾
螟
茘
屇
翮
珎
騳
鵴
蘰
橛
騑
烀
昻
蔕
闶
嫳
睂
硗
倂
垰
颋
衎
钽
隲
鹩
晆
蝐
枡
驣
楃
鬂
冦
斾
潓
饐
琯
鉐
踲
癯
笵
跧
琜
侹
袀
牶
埴
嶆
嬾
貹
鬏
谇
铋
漒
翏
爢
蓚
汧
挒
瞗
珰
栝
湸
檽
勚
愅
韮
茍
皕
嶻
梛
盦
瞐
觿
癋
蚭
牥
鋍
禼
鳰
澞
翚
聼
聃
搒
沷
囎
昡
鮠
枔
螅
狺
鞢
玏
綕
鋡
麰
矲
丷
犴
偡
膴
厀
瑃
眜
娔
鹓
槚
豭
茑
囷
厏
糋
晅
鬁
昞
覞
塮
罟
筬
祏
肕
篯
谝
璕
诖
蔹
餂
眪
鞞
裛
翨
佪
鋊
墁
飝
妛
庪
缑
寃
鉎
褉
猋
鼣
屮
攡
濅
镧
鳐
硺
蓂
踔
栟
螠
虵
瑱
壍
鞓
蒥
爀
瘕
烜
枆
镙
腲
粴
蕖
韎
婞
熻
苀
愇
楟
翀
煟
鈘
穜
乛
菝
栺
脿
泿
镏
貆
烗
摃
鲘
瑨
顇
裯
蜣
鉱
銕
媵
摴
嵛
漟
鄨
爣
呉
伾
佷
沘
譿
阊
圑
翫
嗥
舨
冿
垻
岻
琕
鲅
鎋
鲩
玿
岢
嚚
遟
椤
鲻
墯
桫
臈
鸤
縦
騞
昩
駈
邉
岨
疁
飡
嫇
玽
皥
棝
胇
脭
飮
腚
楘
窂
枵
殽
礏
蟴
蜾
珢
堞
芺
蠪
榊
歃
嬲
怌
帤
徥
孭
掹
秡
懽
磎
吂
睺
朞
苙
祔
鼖
璩
蕦
薭
咮
堌
潪
暾
扥
屘
鬈
箆
玙
琁
糭
箧
鵋
跏
蓭
胉
蘅
蔸
岞
醝
髣
籖
鑢
峃
圝
仾
鬐
踣
芑
玜
竢
鳔
聟
輶
骲
膅
糎
铥
儑
甗
囙
沄
鵙
筰
緌
嵞
冘
绨
溁
曎
髗
蔎
櫋
冧
琎
翖
鵄
罾
繖
萡
嵜
噍
鐆
秠
鬅
轙
媺
蔾
翜
侚
埝
癛
啅
宀
韲
璬
祫
膆
熈
縀
剱
诮
蚨
蝤
茆
舄
鶫
扽
圡
萏
迏
淐
遘
虡
蝛
尫
菿
嗂
荿
弐
嫕
栆
鶋
啒
鹨
鯘
曁
骱
骘
涚
劙
鋀
巛
癦
艔
郓
搆
菾
疌
抅
樘
嬚
焺
霱
瀙
吔
汌
烕
槢
撘
埏
珆
岵
仱
嫢
碥
琖
墪
譔
櫂
仒
蒈
橔
虈
剠
鸲
鄄
鮬
憡
庈
凵
赉
彍
熷
虉
谠
薷
鼢
矟
縡
瀓
鐛
夐
辒
疎
螽
衽
摌
礉
髾
薶
鱚
轕
匋
蕐
蕞
鹆
笪
蝰
鲌
禝
鲧
厽
俅
揅
閖
塸
锷
膍
倿
漍
墈
佽
拺
鼽
轋
騘
毉
胠
稘
鲉
蟧
乭
祶
醕
蹅
鄫
颣
嚄
濋
瑭
棯
媥
黉
璢
薚
嬨
簟
珳
壝
媁
攽
笾
鵻
鄈
鄕
仡
巭
絚
泂
薝
楎
樗
舮
岥
鰶
蛩
怞
虺
恂
盌
嗋
觬
餍
黦
雝
茛
犡
裋
漶
粛
倕
曯
蟪
鲴
鱻
蘡
掤
烐
牕
碬
饾
簔
踁
撢
鏶
邔
暁
诂
釼
槈
幇
趮
礭
墺
瀴
侊
斲
菺
燫
轾
蓥
妵
湓
鑂
慭
穪
醆
觍
冮
芿
礀
籒
鯥
藚
捒
摭
鴈
鶑
摛
耉
缳
臶
諪
瓆
熀
苌
椴
喐
垌
謟
嶪
鹗
蓢
姞
酲
喦
窽
鈨
椇
迌
缍
袵
疕
镈
鶏
侇
笅
闱
彖
岓
灜
橥
謋
褙
觳
謌
郗
蟅
孓
扠
葸
鯻
跗
镟
瀼
玈
哚
羑
灠
崼
儖
蟟
嶫
嵒
愽
艼
蔆
舑
蔲
硂
膉
窭
妡
枿
旆
鳏
蓛
玼
鈤
锸
滉
嘠
浵
臯
謿
砹
畤
酡
烒
嚯
狻
祓
扜
贠
鉟
傪
巜
墡
钷
涘
夒
昚
鏴
龗
弻
禶
爨
琸
艅
瘝
骖
镋
愬
嚻
茇
鲞
鹪
疠
飗
岮
蝜
剕
铹
娵
峿
嵺
擳
擧
櫡
彜
觻
鲎
箅
鲿
詅
噆
庒
巯
圐
鎃
昃
瓫
蘦
嵢
倅
揑
揫
鉥
羼
唼
狝
侲
萜
暟
蹮
堨
鼌
瓓
岹
揕
蕡
鶕
巃
鏕
輵
妌
袨
蜙
槅
壐
玦
繘
揵
秞
牉
呏
荭
陹
锗
晐
鎜
铳
纃
琑
毑
萈
櫶
厾
賸
儹
慝
骳
偢
鐡
牳
醾
斄
稤
焢
鏳
冎
刿
隡
儚
邴
牾
僈
箄
漘
侘
鐬
涢
瘳
饧
潝
堐
襛
蠵
褣
竃
懠
綮
梃
蟼
菔
煿
憙
锕
抌
霐
巆
拫
瞾
蜦
钫
幞
灳
滺
潾
猓
鲒
旞
婤
鲐
倐
巼
抪
瓌
瓈
慓
爋
墦
镥
祲
昺
矌
棽
霅
麀
敻
哖
镪
軖
媤
矼
酘
釸
馵
苿
莨
錞
晼
彯
胐
紑
歅
偱
囄
鹎
豽
鹾
噣
摅
黼
鸐
觘
扆
黖
玴
夌
坃
墚
菑
繎
鉨
釖
饔
諌
庽
滧
诔
箪
譝
枎
茚
禵
撆
椌
朿
隩
睗
莸
斵
蓊
餙
乚
熘
倛
椓
毧
睚
佹
魋
鸺
峮
伣
凓
覙
蜫
閪
慛
嵠
虮
洦
揎
拕
鸫
灂
畓
崌
曶
鋈
枛
跍
椄
莳
搦
媗
裻
辠
羗
陴
抆
舁
簕
鈏
墱
蜄
稆
蓣
鍳
駼
镃
僬
簒
汔
舴
硏
磝
舦
勥
郖
謷
玾
薕
嗢
狌
憻
罸
薞
媎
阽
谼
卾
虿
浈
箽
琄
鲹
姮
祊
笴
驎
堢
魒
鵍
鲆
郿
圬
蹍
俋
癠
湌
諩
趍
珘
頥
栰
蚖
襧
翥
儵
踈
嗮
訔
挍
揺
庼
僔
旐
壌
媠
琔
甝
洭
萳
裿
惛
浢
摬
瘃
擵
槀
楤
抦
柎
丄
怴
峁
鯺
湥
濍
脟
芣
餁
墠
呴
唛
諈
埞
屣
桄
猘
壂
扌
镬
唦
礜
嵑
攑
涴
顜
泇
閺
韖
锛
芨
磹
瘵
澉
歭
璈
鬡
蘂
搚
顉
觏
宄
佂
丂
穨
摫
栧
榣
缡
爗
楬
茪
蟓
倎
鹯
谵
坮
埨
闬
嵱
焫
鼡
涐
摙
徦
萹
讬
逹
苺
蔄
鬙
藳
骓
倥
籨
堜
魞
怘
蘘
驲
鰯
羃
庀
崒
禈
锽
箙
灊
澓
莾
脡
瑸
亻
懩
蒖
鬲
銤
撎
曮
酦
眭
渻
爚
趱
炥
啯
苐
乁
尅
軚
纉
鲰
蟫
褭
纆
鼷
琌
萑
妟
蜨
睴
砆
呶
祩
鍟
恠
枥
坖
貮
檝
濙
濵
錷
掓
渑
貭
緅
挐
珶
镞
塱
恉
啁
沲
櫎
娬
潫
夂
勼
崿
贶
搣
韗
荾
媸
驘
蟌
蚿
逬
甪
桯
笭
禘
詟
讱
硴
蛜
朼
漑
耩
稖
惷
梌
罨
匜
廒
鞯
眆
邡
嶰
哃
霪
淸
檿
娎
瀁
硑
覕
忺
毌
俙
莏
哠
邤
襃
穖
紾
柽
窾
睩
縥
暻
羙
朊
塈
弉
迨
楏
颃
霨
沩
熺
茺
踬
矴
櫔
诐
錻
燓
淢
怄
硁
慊
痁
俦
漴
斮
茔
鞜
嚱
骝
鄇
敱
颥
喛
忞
鯭
吥
拵
籥
榎
坧
璺
垓
肦
蹪
眃
孥
獏
蔃
壸
旡
棓
峚
鞶
玤
昐
鐅
逑
隰
弴
鷜
竂
兎
襍
夛
搧
侅
襾
彑
葪
洚
璘
昫
陑
澴
姶
躽
覑
窣
愔
櫏
棑
溇
欝
氒
崡
碡
猳
柖
跸
魉
旄
瞨
谖
嵴
馺
朤
奰
唥
昛
龃
萣
倸
衉
憕
畱
腍
硊
笿
霬
氠
粋
佄
甃
稾
洓
袗
碵
鳋
悙
凃
禋
憯
蜧
絸
毈
孠
俜
蓈
灴
柙
妧
緎
蠽
鄀
擭
抃
醩
覝
姁
櫙
庲
粦
硇
煓
廴
蝘
髆
簘
寴
黈
韈
鷃
劢
壏
鉮
丩
彀
鹱
樆
箲
憏
辚
琫
寳
韺
瓻
葶
祦
桍
嚢
婍
埯
捯
婸
偫
戠
劔
汸
韐
稉
扅
圤
珝
溷
巙
礽
袇
鑚
潖
箊
芏
鲽
砦
觃
狨
忩
氩
悛
脶
呣
焿
壴
肼
溚
煳
竴
崯
阛
颬
貃
跶
礟
髳
藙
寭
鞆
疪
姸
颕
苳
槔
垧
窻
壒
焝
嚅
轜
簰
沯
蓺
恟
瑑
蟙
娋
昋
彣
搿
鵤
忄
泩
啹
塼
洳
璔
彟
眵
椚
枒
郋
栲
酏
硈
鹀
穚
鸱
鏭
尗
鞒
蝻
畮
峅
嘬
淏
镘
洨
虰
孹
賹
踚
瓪
亷
砊
喈
歺
邅
唅
噘
婬
弎
嘡
鵕
杝
豷
忝
齹
铴
亅
晍
帱
鞗
癓
齂
蜎
勰
杪
鏠
祄
墧
岣
癀
擕
犺
桹
憓
肎
苨
莯
啽
弸
躴
恽
铒
溒
堷
璙
腶
弜
魿
謮
浠
暪
儃
蹎
猸
黻
奤
鏧
碞
飬
鬻
燏
鍪
曒
鞲
橅
臁
歕
鳙
籣
畚
甴
褢
楳
佴
怛
陉
滏
抮
髠
嶀
鋕
褎
祬
醲
枬
欆
舲
噂
刄
屦
袴
摰
揲
鑙
醰
炤
魌
坬
峑
攵
祾
敹
緁
伓
獖
靍
螊
梇
迠
卥
噺
戆
甏
斁
砮
聮
癈
髹
鹻
堎
淝
籴
槊
鄑
蔪
摂
艶
丆
鋬
澂
屾
裬
鄎
俒
炌
掾
蝯
亯
瓩
樀
瀹
唞
駬
伮
粬
硄
鑻
邠
嵨
嵻
凖
逺
歀
麤
蚇
巑
輙
娚
腠
烋
镢
邚
聑
洌
畛
罽
厰
尠
踍
髟
鋿
軁
炱
婏
厇
鋋
屭
姖
毳
湲
暦
銾
嵔
蝒
嵃
厐
瘉
蕌
舯
豧
鳘
曋
裎
鲔
楯
醤
爊
祌
粆
褟
眽
祤
蚶
煚
岶
偦
靔
蠖
眇
緃
倢
狓
荲
殀
刱
忼
籊
謜
煠
坱
忬
炆
鳁
釽
滶
齍
湝
襸
韡
轪
綷
颙
馂
鷞
揔
梱
髫
樖
朌
坩
滆
垶
鯼
醵
蟛
躞
徧
篴
簗
敭
砕
捊
铈
玓
訸
煹
襦
桵
糿
浿
俴
柸
杢
淊
嵝
杇
夨
枼
溹
鯯
钪
扵
婳
螛
撀
杘
霳
敿
媏
榼
嗛
陼
簝
漌
苪
謰
麭
枹
鸼
镨
凊
偭
簳
溘
簜
餣
迓
嬫
敤
馝
鸁
焅
胲
袥
葄
籑
泜
莂
禔
佉
碏
垿
痲
抺
氎
硙
崘
螔
觔
撱
仭
厶
圮
椱
崠
箜
晬
溙
讣
燘
窰
勅
滹
耢
刧
遬
迮
楪
猰
榤
钬
刋
幑
滃
栳
忟
郕
塟
褝
舤
憺
宬
奯
埜
彊
餈
隄
枺
敺
嘁
鬛
熝
蘵
呙
竸
凫
朒
灈
洉
忉
搥
悧
糓
阗
嫙
蓇
彛
劓
簮
罴
癔
棃
粊
楶
馊
珓
丏
鶤
宷
胂
鑯
嶍
荛
爩
氝
溵
縅
懮
葙
鎐
狆
箟
蝚
绂
廌
皐
誀
閕
榗
凘
鞉
躧
镤
堧
滠
牪
懔
釭
蜩
驡
灋
嵿
醄
鏪
峣
儳
芤
攧
塽
髽
骎
蚄
霟
蛍
氿
潽
靃
榰
樒
漇
蔁
粩
鑟
憟
謞
慜
绱
蔈
柌
绲
埘
豳
迍
儶
魗
朣
荙
簩
貐
囇
鋄
梂
澪
蒝
麈
傋
剡
詏
砯
杧
瀡
鸒
辶
椸
弢
觱
胈
斴
巎
拃
肊
樍
棔
柈
鵌
貉
鋻
羬
荩
圪
琠
硦
圲
蓐
滪
隂
腄
棩
翾
缬
饀
楈
佋
腂
楛
糨
竛
魾
垙
翈
剞
脝
棐
骺
牋
胗
挧
鮴
僼
傃
駾
霤
篶
唡
崐
礑
燱
鮹
呬
籈
滮
睱
黁
钕
赪
亖
霫
幨
埲
潵
瑉
犰
蓔
轵
濳
牓
哿
睔
孮
翣
鋞
瘣
悃
葢
鄋
俣
歜
緺
鸶
筇
飧
稄
泺
咍
谡
諿
筚
訏
铚
沨
鸷
橺
檖
踡
阒
墬
竮
磗
瑅
玕
嶎
瞫
埑
蝲
俹
覅
衺
眕
棳
欉
胏
憗
弅
鯠
柀
琚
攅
萢
瀖
鄤
輆
铕
旸
硿
檍
鬘
椠
岠
茷
栭
竻
辿
橕
僳
竍
炏
嬭
亰
渫
硖
洇
罅
啋
矞
笯
犿
谮
燢
薸
篼
枊
瓨
昳
迼
醸
珤
斠
踅
荎
洟
怿
鄝
虁
毱
崳
繑
阍
獿
螶
磴
楦
瑇
峛
儞
泭
踎
兙
杺
螐
鱀
鍂
缟
螲
嵡
蝀
夆
禫
櫆
麅
泖
菦
榍
摎
屴
撍
鳚
犋
匵
緈
檞
繧
兊
霿
鈶
崶
嬏
襷
匊
鑖
奀
霙
虨
鴂
钔
噃
橰
桙
颩
毸
忾
靲
蟊
缋
爕
鬴
庛
掞
鐩
仈
笢
醓
隤
撖
薤
琤
婥
蠩
灺
孊
愺
頠
飂
虷
缊
埁
睠
铏
篊
踨
棢
荍
煾
峼
嚰
檙
蘽
鄛
繵
竦
庥
咡
儬
頪
鳆
咝
袌
麇
厫
暅
鑃
戉
搾
穋
麿
濩
珽
甎
塅
觝
鞴
櫲
崞
瘈
瀷
鈱
孍
觮
觾
尣
靋
瑢
喢
泶
扻
硲
茈
喣
撗
垡
塣
儅
鴸
冡
玞
簁
黧
鄃
拶
桖
鄩
醧
軧
瞖
悰
廮
珋
靫
椙
嚈
溆
揳
儦
慴
葥
瞽
霩
侸
埳
圁
寪
矙
囶
淽
爝
芼
笘
硞
暋
笱
譧
慂
亠
磢
阸
剰
痏
媕
鬊
浥
愀
槙
漦
嗍
瀵
曧
郘
焄
繲
璆
伲
蠘
奜
宧
櫑
蚡
愗
甁
恮
咉
轳
劂
圫
嫰
麑
崕
埫
鐭
狘
繍
霯
霛
湂
螜
靬
跁
熳
畍
蘥
穣
啘
盷
硠
聡
嫈
狉
琂
麔
咺
豦
褁
昤
仫
冞
飖
燣
蚍
轘
炶
佲
卺
糪
釈
鴫
溞
賮
埻
阝
萀
涺
裰
鈩
裼
鞔
胅
铇
鈚
蟸
汒
夣
搹
锔
竳
蝪
磇
淎
贽
饣
麖
蜛
吅
眳
吪
倝
墫
臽
簱
飐
儛
筈
跼
鎓
伻
悕
垟
瑘
炑
侾
苈
刣
迿
泲
冖
挰
疢
琟
婜
峍
瑬
棪
堭
臖
邆
琣
篰
佊
惸
瑧
螓
犎
垯
愃
鲄
矦
葨
樌
熿
鄮
闛
稙
椬
訉
礚
赮
聦
瘼
嶤
攲
焬
嗀
渜
疬
馌
嘨
瘐
敉
狳
赕
輏
魹
洧
暏
鹝
萞
鬿
霶
鹚
杩
塄
豕
訾
圴
餽
辧
誵
鯮
覶
唢
濲
聱
筮
垅
皃
瓖
跘
藰
骻
奁
籀
柰
胩
敥
梣
寏
盿
絭
葖
騩
壖
蝭
棁
婓
榟
歠
翲
钲
蓨
欎
屲
甞
嶦
熼
鴢
笡
幖
幚
稃
裦
痌
浞
峺
熯
洿
腃
焠
魕
锎
苃
壡
埦
巪
恡
鑺
僙
笩
珹
濊
旼
坈
嫥
萂
爁
蹏
寁
氱
蒱
箾
坫
薠
鵎
玱
鸹
璅
摱
絏
畬
瓠
厵
盝
罉
鉩
瑝
迖
暼
戗
檰
黪
猄
屪
秬
廪
屧
摣
匼
譒
廙
睄
怟
厓
韑
麹
阭
劋
旝
筿
皲
暍
萫
臷
韤
娸
锬
邶
秶
捦
瞵
鸀
螈
櫌
媜
皛
戢
湠
蝑
暵
坌
嫠
騹
嶌
祅
嘐
闀
鄠
陥
筶
饆
捵
柉
忮
嘑
譶
鶱
坭
艚
魓
瞙
凕
瞂
欗
嫸
檇
鱰
倞
祧
鑨
冫
鉫
轁
狶
铘
縤
夀
襜
芛
吲
趄
坶
蒎
崋
喤
趷
伱
衂
楴
賩
儌
匴
溂
瀤
鑛
奝
抯
虩
慠
脵
梫
僲
踀
堽
螝
鹸
搋
慱
伥
鞌
硍
榾
尩
肙
楆
僴
幈
埣
欵
筩
藘
瞆
椻
儗
伅
柅
湶
羮
烰
炣
渟
嬂
縂
倓
鞪
杮
涷
嚬
煀
趿
覊
畺
篢
瞕
氊
姈
缌
勮
渧
茞
楧
癿
薜
鬽
咇
猢
夼
蒩
戹
晪
鸸
碹
徝
粢
剳
硘
燍
璲
錅
蔀
矅
娙
烺
毹
陃
佀
鋘
莜
檠
滛
窴
裭
蹁
锜
耧
舳
臩
紩
櫉
鼫
嶅
鸎
扙
傕
鄗
劖
幵
耱
洺
寗
歫
啚
貍
廍
汮
臝
吤
糢
汅
鼩
靑
蔂
芐
穅
赑
洊
哕
鄽
髃
蓗
炟
孅
禢
廘
缐
堁
茠
锞
皫
禠
嵙
崈
闗
噛
忭
圀
璥
磟
飏
顨
抋
轈
刦
氽
吺
圊
嵓
蠎
阓
僐
玅
嗻
彁
堮
脤
獛
犉
铦
踿
匁
叴
癶
敆
榢
躜
荦
巵
蒪
稒
熖
搯
耤
臞
搌
崵
昹
鞄
绖
蕹
籯
煄
铗
眅
蒚
猼
郯
惓
僢
鬦
玢
褴
肹
藾
汻
竧
腽
獯
簴
偠
饂
涄
尌
纥
猞
镦
莰
钇
訚
乢
闉
蔌
廻
舻
惂
嗾
鄷
勫
捃
楢
朓
頙
蓸
汜
畞
鼶
杙
閚
洀
藠
髄
璓
倽
髺
焞
玪
瘆
妚
橉
鄼
褯
蕂
蛓
秌
掊
閠
鬵
謲
磵
鬌
苰
頚
玨
棬
膰
紒
傛
觟
倻
鴠
槇
凐
玔
肶
憘
潄
嵹
梡
啎
鍹
掫
釆
蚰
噏
黥
蜉
隗
沜
廏
蒣
菉
獹
蓪
浍
锍
樻
晿
箘
秔
蛵
圉
薿
泙
鹖
劤
仂
沶
磥
臇
鑁
镲
撺
叧
槑
凧
澥
铷
朅
罋
弍
偰
秺
鉌
崱
欬
镝
揞
埛
夤
眄
鶵
皭
肐
圦
浟
紦
呔
攟
醁
滳
毬
驖
茳
堬
盋
渓
侒
坿
揂
刼
潬
铱
稑
碜
偓
跬
昅
沴
虌
虘
苤
趖
伩
洝
楒
盉
翺
騣
酾
猲
粁
玡
翴
蛸
峊
蕮
樈
嚸
酆
呿
冋
汭
譢
瘚
狔
覔
郈
媓
搰
郥
砳
牗
徍
剸
姱
鏛
葃
扃
屺
晛
漺
仚
嫫
蛴
讠
鴑
蒉
聨
艛
尒
绹
鐾
杸
艿
櫾
蛑
剦
疭
挷
氞
睃
圂
嗱
罳
黚
堼
柣
夘
瑡
跰
蘐
弶
氅
偁
鞨
搴
蠳
砩
滍
瘰
蓒
侁
靱
婣
笳
搳
熧
蓳
揜
翪
靿
虼
諘
杲
伬
睼
遉
蝍
貤
蠧
嘏
閛
惈
薢
楑
恓
偸
葜
烶
鳟
苩
跦
凅
鏓
鞤
驔
翷
镫
籝
砘
淂
诼
淠
廰
鸩
惏
篒
朲
迳
繄
飍
黇
釡
伂
楡
苵
隹
鬶
濶
輌
忔
餠
敁
漎
醅
裌
媢
凩
嬝
尙
觷
辋
兿
桲
琭
塍
聝
鹍
恹
栫
膪
鋖
鄡
褖
玗
骩
髲
槒
徢
檥
硚
煃
荝
薉
屙
磏
棫
烱
杽
雥
酻
甛
赜
襻
篈
鄘
爌
哳
蒑
縠
苊
麎
蜼
暕
纻
瑫
塰
澋
呒
僆
恊
淴
熮
獉
郐
芚
睟
颿
竗
摉
溍
镅
逦
牼
篛
蚑
澽
瞹
秅
扞
弝
鱓
纎
覵
伳
埒
欻
睸
堣
硷
膣
锾
釿
悋
陔
艪
坰
萚
瞀
畽
幰
戋
犽
筭
簉
繊
鬷
豲
嫃
圯
酛
剆
弪
忳
妏
艄
崾
曺
洴
鬯
曅
橓
裣
缃
憇
稡
呑
愭
恇
稥
鴡
撙
鮡
曌
雟
鍨
螗
隳
勷
珄
蜅
鈢
啍
袐
軇
吷
堄
穰
倷
佮
掻
筻
蕸
竝
秼
瞱
褅
钐
劒
絽
岒
幷
胨
榧
豩
琙
勭
鑓
佺
昝
穧
鲊
瑆
炰
婯
詄
伭
埚
蟝
荑
讉
嗫
岟
捜
徂
躶
郙
鱬
槠
呟
悒
捴
甶
磦
嚾
囓
惔
螱
绐
缒
扚
毦
牱
搲
捼
熑
痓
筅
暎
勹
澿
悭
骉
悮
翂
龉
鑋
煐
梮
啇
郳
臌
芁
渇
鲗
笒
鍗
觋
亾
霋
懐
雦
翧
圗
閦
犘
楥
埙
腟
鏋
啴
攉
菻
籾
徯
脮
偀
莛
柮
妯
埭
浘
塛
崦
摡
浧
櫿
諲
奭
鵵
拝
栱
靰
竑
髇
儴
闁
贳
氻
崀
厍
瞃
耏
锼
燰
渽
挀
袆
慅
椐
黙
踫
唒
癪
傺
隢
渶
沆
鍷
嗄
耹
禒
菶
蠓
訇
捿
岦
綝
歔
囮
磜
枓
毨
铓
蒌
塉
堛
鬪
髈
箓
溰
瘊
淲
黤
潏
柤
唝
燀
嫐
涬
痀
亸
掯
鐰
洢
蟭
龘
膲
牅
酴
刳
喴
曷
豓
搛
僿
薋
鉲
翤
唵
雊
侓
夬
荜
疐
缷
躅
敶
悝
塥
窞
櫼
缲
巬
藢
侞
祼
杻
箯
荅
寽
眴
怍
蹐
翙
檫
緉
軎
杌
螫
赆
籹
斖
蕀
噒
晸
嫱
俌
蓫
瀈
袾
鲃
挏
隺
奵
卲
鸓
怓
睘
菼
餹
閙
赒
牁
驺
絫
瓞
遝
侪
羓
剀
痬
茮
熤
魑
綍
夅
梹
爤
碶
酀
旴
僡
蚘
壔
湨
萅
蒆
鬭
畷
譪
瑳
鹥
狫
咾
葅
脔
猺
綶
惀
娍
昢
甹
鲳
狋
礻
轝
邗
趦
輘
蛉
槏
椀
掁
硉
宍
棦
磘
夿
畋
匏
袳
譳
黭
砿
弿
鱽
琹
蹀
掅
鏱
庂
擗
箖
帣
襌
鸧
酺
龂
恴
畐
廹
娭
踘
瘖
浰
弇
胾
壱
銙
晈
崤
谫
诜
捖
鋺
朂
柶
髷
漅
饻
庱
瓍
妫
葎
阬
湙
憭
蒾
戓
璴
徫
翛
耜
詝
旰
髢
罝
雃
倰
螆
嚗
怚
邿
蝝
綪
蕅
橒
鳯
捥
芧
禴
敫
僣
膱
鞮
磙
溲
獞
躐
蛃
痎
殪
銗
崮
栒
喭
娖
寕
褡
凞
虂
脺
洑
寤
伃
芘
烞
扐
愦
蜺
砈
羇
锇
卣
瘅
籗
鰿
猯
鳿
旍
蝽
蕍
雠
嫀
紃
宭
仼
仳
娳
騛
盫
汫
祑
鲓
艀
硩
蠲
瞏
煔
卩
舙
腧
礿
桼
涭
諅
芶
帟
噉
簊
猒
鋷
秝
梚
桤
砎
魠
譋
硌
焴
铌
颀
漋
畨
朡
莩
蒄
窅
廛
穬
夑
洎
怊
牷
穊
軆
欷
牂
谂
矺
繦
癨
仌
鞵
屛
掼
黱
笕
隷
傔
诪
腘
逰
靷
璂
袟
鄾
蠄
髨
嫪
隀
胪
鲏
棿
灦
墿
醭
诇
壉
蜮
亹
沍
敔
楩
粨
惄
橪
锶
廽
栌
羕
攺
鱥
烔
檼
碯
遾
笁
陗
鏣
髥
哓
挢
饸
鞬
湔
惪
灉
嗙
撄
禩
笐
妭
酧
裲
禭
塁
籧
棨
鞚
渖
莚
槾
屳
豰
莃
聠
歂
墋
熽
絟
鐱
冴
臜
睭
魤
抾
麄
檡
寙
踠
顠
嶟
嘥
箬
篥
鞼
嗉
匽
袼
牸
磒
膸
溓
餋
珖
樏
冚
濦
碤
僪
桇
墷
厱
榁
銰
髡
轸
擿
廇
憍
谾
筦
詈
唊
椝
闳
纛
滗
捭
蝥
藟
瑓
挻
炡
濽
櫜
筜
犩
荗
翕
襡
呇
歮
璒
鳎
摝
氺
榝
咷
镠
碅
楕
澁
睰
麕
鹴
刓
鳡
鱾
埓
疿
堦
酅
漖
婌
笮
琈
蘧
吿
篚
匃
髝
鏄
冐
濔
鲥
锨
袓
哣
錪
燆
戣
耊
捔
洐
愠
砟
掭
伒
狃
榽
檩
踭
帄
媪
凟
栠
狢
媮
礌
茀
樴
杋
榶
俇
煶
辡
柾
杬
絻
艻
玐
堉
臒
糌
嗼
璻
瑔
臸
鲵
仵
瀍
毐
傰
坣
抔
妀
皊
寍
坙
攮
頨
鄦
嶲
掮
枨
郱
綧
婻
僦
蹹
凼
橦
撽
氕
颎
昪
梽
竓
莬
滽
擖
睌
苢
盠
厷
藋
拠
歈
渰
擏
鴎
悁
贁
蟞
檨
彐
簠
煡
湢
峝
麐
甆
珒
岜
霡
挼
錣
迕
癊
殣
蒧
耼
妱
氍
媱
枃
轫
栯
旈
菂
罏
肁
屽
娈
鐚
偼
酙
赍
丅
跜
夊
僎
芟
哞
蹠
諽
濨
曽
嗵
枖
脢
镎
釱
靮
褺
鄐
匦
秙
摏
乣
嚞
銧
侭
埽
侴
棼
咢
俢
鳠
觽
簖
竾
熞
掕
媄
铧
蒀
絿
噫
椉
魩
昈
禃
苧
颵
碨
倳
搨
尃
祋
戺
畆
韨
隖
犟
缁
軞
蛨
眛
僇
袘
螬
敟
廑
卭
斿
甽
郾
椵
泒
骍
螥
唹
僝
箨
彘
傫
捾
铟
泃
禬
橿
栿
絜
浉
埱
頬
鲚
咑
跲
嶒
硭
禖
誐
蟱
澛
舢
煣
遹
涥
洈
罘
伋
塯
垷
祍
悎
咟
囥
岉
圌
愰
鹁
鍭
呭
硽
蘶
芄
讙
奊
孒
偐
躭
畟
枟
疉
鶮
畖
娪
芔
黐
陧
犏
馛
晭
餲
鲮
煺
顚
叒
穑
櫈
凾
斉
沚
烇
葂
晧
尢
貄
胹
赥
蘁
庻
辤
雩
瞢
锱
郏
賨
谰
梉
馐
晊
匳
怤
鸬
淈
劷
曣
篾
骒
燝
啔
蚼
鱛
狁
蛄
皞
椼
珇
狛
偾
鼗
癹
杅
唫
穏
迻
諻
菙
趉
旉
詥
霝
螉
岾
粃
偲
绋
櫰
铙
栢
虪
誩
橑
锝
壷
箑
浼
盙
鴓
瑮
虤
蟷
艟
湴
骙
甂
媭
盺
礞
碄
鞊
湦
厎
傠
菹
湒
昰
岧
眗
泬
偘
矬
畧
潩
##±
##＞
##ョ
ց
㎜
㏉
∇
##º
##ヨ
##㎢
##ｍ
㎭
##㎏
∑
##≡
##￥
##═
##ｇ
##㎡
##～
##⁰
##＜
##£
㎑
##≥
##の
##㎜
##™
##€
##≤
##┅
##÷
##㎞
##㎝
##ј
##ﾟ
##０
##１
##２
##３
##４
##５
##６
##７
##８
##９
